{"</s>": 0, "<unk>": 1, ",": 2, "▁the": 3, "▁اور": 4, ".": 5, "▁کے": 6, "▁and": 7, "▁ہے": 8, "▁(": 9, "▁of": 10, "▁سے": 11, "▁کی": 12, "▁میں": 13, ")": 14, "▁to": 15, "▁کو": 16, "▁you": 17, "▁نے": 18, "▁کہ": 19, "▁اس": 20, "▁ہیں": 21, "▁is": 22, "،": 23, "▁ان": 24, "▁a": 25, "▁in": 26, "▁تو": 27, "▁وہ": 28, "▁کا": 29, "▁پر": 30, "▁they": 31, "▁that": 32, "▁جو": 33, "▁them": 34, "▁ا": 35, "▁تم": 36, "▁ہم": 37, "▁not": 38, "▁۔": 39, "ُ": 40, "▁for": 41, "▁will": 42, "▁Allah": 43, "▁نہیں": 44, "▁یہ": 45, "▁who": 46, "▁کر": 47, "▁کیا": 48, "▁اللہ": 49, "▁نہ": 50, "▁be": 51, ":": 52, "▁it": 53, "▁ہو": 54, "▁have": 55, "▁are": 56, "▁And": 57, "ِ": 58, "▁their": 59, ";": 60, "▁He": 61, "▁بھی": 62, "▁We": 63, "وں": 64, "▁with": 65, "s": 66, "!": 67, "▁from": 68, "▁گے": 69, "▁اپنے": 70, "▁God": 71, "▁“": 72, "▁": 73, "▁ایک": 74, "?": 75, "▁your": 76, "▁خدا": 77, "▁those": 78, "▁ہی": 79, "▁پھر": 80, "▁Lord": 81, "▁\"": 82, "▁کرتے": 83, "▁”": 84, "▁گا": 85, "▁جب": 86, "▁he": 87, "▁آپ": 88, "▁لئے": 89, "▁do": 90, "س": 91, "▁کرنے": 92, "▁جس": 93, "▁کوئی": 94, "▁on": 95, "▁لوگ": 96, "▁I": 97, "▁what": 98, "▁him": 99, "▁his": 100, "▁والا": 101, "▁اگر": 102, "▁as": 103, "▁لوگوں": 104, "▁[": 105, "ے": 106, "▁has": 107, "▁said": 108, "▁کچھ": 109, "▁shall": 110, "▁when": 111, "▁طرف": 112, "▁we": 113, "▁:": 114, "▁تھے": 115, "▁تمہارے": 116, "ن": 117, "▁but": 118, "▁ہوں": 119, "▁all": 120, "ٰ": 121, "▁-": 122, "▁تھا": 123, "-": 124, "▁people": 125, "▁سب": 126, "▁ایمان": 127, "'": 128, "▁انہیں": 129, "▁which": 130, "▁was": 131, "▁اپنی": 132, "▁دیا": 133, "▁لیے": 134, "▁،": 135, "▁by": 136, "▁or": 137, "▁و": 138, "▁کہا": 139, "▁this": 140, "▁if": 141, "▁were": 142, "▁رب": 143, "▁والے": 144, "▁تمہیں": 145, "▁دے": 146, "▁کرو": 147, "▁then": 148, "▁so": 149, "‌": 150, "ی": 151, "▁us": 152, "▁اسے": 153, "▁یا": 154, "▁one": 155, "▁The": 156, "▁ساتھ": 157, "’": 158, "▁بات": 159, "▁زمین": 160, "▁His": 161, "▁no": 162, "▁پاس": 163, "▁بے": 164, "▁رہے": 165, "▁They": 166, "▁طرح": 167, "▁say": 168, "▁دن": 169, "▁had": 170, "▁کریں": 171, "▁—": 172, "▁جائے": 173, "▁جن": 174, "]": 175, "▁اے": 176, "▁کسی": 177, "▁ہے۔": 178, "▁me": 179, "▁there": 180, "▁may": 181, "▁earth": 182, "▁بہت": 183, "▁ہر": 184, "▁an": 185, "▁would": 186, "▁عذاب": 187, "▁؟": 188, "؟": 189, "▁بیشک": 190, ".\"": 191, "▁Him": 192, "▁والوں": 193, "▁کرتا": 194, "▁تک": 195, "▁my": 196, "▁گیا": 197, "▁ہوئے": 198, "▁our": 199, "▁ye": 200, "▁لے": 201, "▁الله": 202, "▁been": 203, "▁believe": 204, "▁upon": 205, "▁ہمارے": 206, "▁دو": 207, "▁But": 208, "▁اسی": 209, "▁پہلے": 210, "▁)": 211, "▁'": 212, "▁good": 213, "▁کام": 214, "▁So": 215, "▁پروردگار": 216, "▁before": 217, "▁کرے": 218, "▁وقت": 219, "▁Jehovah": 220, "▁دی": 221, "▁آسمان": 222, "▁رسول": 223, "▁can": 224, "▁م": 225, "َ": 226, "▁made": 227, "▁ہوا": 228, "▁بعد": 229, "▁میرے": 230, "▁یہوواہ": 231, "▁انہوں": 232, "ّ": 233, "▁did": 234, "▁come": 235, "▁only": 236, "▁know": 237, "یں": 238, "▁among": 239, "▁ہمیں": 240, "نے": 241, "▁مگر": 242, "▁at": 243, "▁شک": 244, "▁whom": 245, "ing": 246, "▁جائیں": 247, "▁sent": 248, "▁وه": 249, "▁any": 250, "▁چیز": 251, "),": 252, "▁پیدا": 253, "▁down": 254, "▁تاکہ": 255, "▁حکم": 256, "▁مجھے": 257, "▁Day": 258, "▁کتاب": 259, "▁وہی": 260, "▁day": 261, "▁شخص": 262, "▁indeed": 263, "▁تھی": 264, "▁پس": 265, "▁out": 266, "▁قوم": 267, "▁Our": 268, "▁Then": 269, "ا": 270, "▁about": 271, "▁unto": 272, "▁life": 273, "▁Say": 274, "▁nor": 275, "یا": 276, "▁You": 277, "▁بڑا": 278, "▁حق": 279, "▁‘": 280, "▁than": 281, "▁ک": 282, "▁should": 283, "▁جان": 284, ").": 285, "▁make": 286, "▁surely": 287, "▁ہماری": 288, "▁گی": 289, "▁some": 290, "▁دیں": 291, "▁تمہاری": 292, "▁کرنا": 293, "ً": 294, "▁لیکن": 295, "▁گئے": 296, "▁کہہ": 297, "▁It": 298, "▁other": 299, "▁ہوگا": 300, "▁away": 301, "ہ": 302, "▁things": 303, "▁لیا": 304, "▁truth": 305, "▁All": 306, "▁see": 307, "▁over": 308, "▁against": 309, "▁سکتے": 310, "▁give": 311, "▁سوا": 312, "▁O": 313, "▁fear": 314, "▁د": 315, "▁ہیں۔": 316, "▁after": 317, "▁ایسے": 318, "▁into": 319, "▁When": 320, "▁way": 321, "▁heavens": 322, "▁زیادہ": 323, "▁اب": 324, "▁سو": 325, "▁If": 326, "▁What": 327, "▁کہتے": 328, "O": 329, "▁ہدایت": 330, "▁men": 331, "▁except": 332, "▁تعالی": 333, "▁up": 334, "▁بنا": 335, "▁میری": 336, "▁its": 337, "▁thou": 338, ".”": 339, "▁آئے": 340, "▁like": 341, "▁evil": 342, "▁does": 343, "▁رہا": 344, "▁دیتا": 345, "اور": 346, "▁راہ": 347, "▁تمہارا": 348, "▁مدد": 349, "▁یہی": 350, "▁In": 351, "▁گھر": 352, "▁بڑی": 353, "the": 354, "▁punishment": 355, "▁ایسا": 356, "▁how": 357, "▁صرف": 358, "▁time": 359, "▁جسے": 360, "▁Jesus": 361, "▁ہوتا": 362, "▁دل": 363, "▁لائے": 364, "▁Book": 365, "▁given": 366, "▁گئی": 367, "▁کیلئے": 368, "▁کیوں": 369, "▁بلکہ": 370, "▁یقینا": 371, "▁کہیں": 372, "▁man": 373, "▁created": 374, "▁چاہتا": 375, "▁Indeed": 376, "▁علم": 377, "▁نازل": 378, "▁ہوئی": 379, "▁زندگی": 380, "▁take": 381, "▁دونوں": 382, "▁more": 383, "▁خود": 384, "▁’": 385, "▁دوسرے": 386, "▁جاتا": 387, "▁most": 388, "▁جانتا": 389, "▁یاد": 390, "▁believers": 391, "▁دیتے": 392, "▁جاؤ": 393, "▁signs": 394, "▁طور": 395, "▁world": 396, "▁بارے": 397, "▁یسوع": 398, "▁themselves": 399, "▁رکھتے": 400, "▁بیان": 401, "▁her": 402, "▁because": 403, "▁والی": 404, "▁Those": 405, "▁Do": 406, "▁Who": 407, "▁two": 408, "اس": 409, "▁اعمال": 410, "▁turn": 411, "۔": 412, "▁کس": 413, "▁اپنا": 414, "▁thee": 415, "▁This": 416, "▁جا": 417, "▁right": 418, "\"": 419, "▁That": 420, "in": 421, "▁My": 422, "▁خوب": 423, "▁How": 424, "▁ہونے": 425, "▁knowledge": 426, "▁ب": 427, "▁تمام": 428, "▁deeds": 429, "▁حاصل": 430, "▁ہمیشہ": 431, "▁االله": 432, "▁such": 433, "▁hearts": 434, "▁عمل": 435, "▁دنیا": 436, "▁faith": 437, "▁between": 438, "▁came": 439, "▁–": 440, "ed": 441, "▁Messenger": 442, "▁let": 443, "▁میرا": 444, "▁even": 445, "▁یہاں": 446, "▁help": 447, "▁bring": 448, "▁نیک": 449, "▁worship": 450, "▁قیامت": 451, "▁back": 452, "▁Bible": 453, "▁موسی": 454, "▁every": 455, "▁دینے": 456, "▁others": 457, "▁many": 458, "▁ضرور": 459, "▁these": 460, "▁.": 461, "▁am": 462, "▁۱": 463, "▁چھوڑ": 464, "▁ایسی": 465, "▁عطا": 466, "▁کون": 467, "▁بہتر": 468, "▁فرمایا": 469, "▁while": 470, "▁باپ": 471, "▁ظاہر": 472, "▁نصیحت": 473, "▁another": 474, "▁دیکھ": 475, "بھی": 476, "اے": 477, "▁بعض": 478, "▁رہیں": 479, "▁could": 480, "▁سخت": 481, "▁never": 482, "▁clear": 483, "▁own": 484, "of": 485, "▁آخرت": 486, "▁mercy": 487, "▁پاک": 488, "▁کافروں": 489, "▁ask": 490, "▁لو": 491, "▁لگے": 492, "I": 493, "▁سکتا": 494, "▁certainly": 495, "▁فرما": 496, "▁well": 497, "▁knows": 498, "▁hath": 499, "▁کفر": 500, "▁نام": 501, "▁جاتے": 502, "▁reward": 503, "▁وعدہ": 504, "▁جانتے": 505, "▁مال": 506, "▁Moses": 507, "▁سامنے": 508, "▁چاہے": 509, "▁follow": 510, "▁forth": 511, "▁اختیار": 512, "▁قسم": 513, "▁For": 514, "سے": 515, "to": 516, "▁also": 517, "We": 518, "▁رحمت": 519, "▁السلام": 520, "▁ہوتے": 521, "▁کئے": 522, "▁شیطان": 523, "▁عبادت": 524, "▁ظلم": 525, "▁فیصلہ": 526, "▁land": 527, "▁verily": 528, "▁پانی": 529, "e": 530, "▁وجہ": 531, "▁find": 532, "▁جگہ": 533, "▁where": 534, "▁A": 535, "▁مسیح": 536, "▁درمیان": 537, "یہ": 538, "▁بنایا": 539, "▁کافر": 540, "ان": 541, "یعنی": 542, "▁ہاں": 543, "▁جنہوں": 544, "▁she": 545, "▁true": 546, "▁معلوم": 547, "▁revealed": 548, "▁پیچھے": 549, "▁women": 550, "▁therein": 551, "(": 552, "▁better": 553, "▁نشانی": 554, "▁داخل": 555, "▁go": 556, "▁حالانکہ": 557, "▁بڑے": 558, "▁رکھا": 559, "▁آ": 560, "▁انسان": 561, "▁کیسے": 562, "▁رہنے": 563, "▁Surely": 564, "▁might": 565, "▁جانے": 566, "?\"": 567, "▁great": 568, "▁بائبل": 569, "▁Verily": 570, "▁gave": 571, "▁brought": 572, "▁اہل": 573, "▁رات": 574, "▁until": 575, "ت": 576, "▁used": 577, "▁each": 578, "▁As": 579, "▁آگ": 580, "▁قائم": 581, "ly": 582, "کے": 583, "▁love": 584, "▁night": 585, "▁چاہتے": 586, "▁آیا": 587, "▁ہاتھ": 588, "▁حکمت": 589, "▁کبھی": 590, "▁Most": 591, "▁become": 592, "▁دیکھا": 593, "▁being": 594, "▁؛": 595, "▁guidance": 596, "▁death": 597, "▁thy": 598, "▁]": 599, "▁دیجئے": 600, "▁place": 601, "▁call": 602, "▁گواہ": 603, "▁ہوتی": 604, "▁wrong": 605, "▁جاتی": 606, "▁خیال": 607, "▁cause": 608, "▁کہنے": 609, "▁قرآن": 610, "▁باتوں": 611, "▁جنہیں": 612, "▁ones": 613, "▁دلوں": 614, "▁پورا": 615, "▁قبول": 616, "▁لیں": 617, "▁There": 618, "▁رہو": 619, "▁بھائی": 620, "▁آج": 621, "▁ہرگز": 622, "▁حال": 623, "▁best": 624, "▁angels": 625, "▁بدلہ": 626, "▁return": 627, "▁بندوں": 628, "▁ر": 629, "▁نشانیاں": 630, "▁اولاد": 631, "▁کیے": 632, "▁مقرر": 633, "▁تیرے": 634, "▁بھیجا": 635, "▁مثال": 636, "▁نماز": 637, "نہیں": 638, "▁وہاں": 639, "▁send": 640, "▁Us": 641, "▁گے۔": 642, "▁چاہئے": 643, "▁children": 644, "▁دوزخ": 645, "▁water": 646, "▁ظالم": 647, "▁۲": 648, "▁پیغمبر": 649, "▁ہمارا": 650, "▁Fire": 651, "▁سزا": 652, "▁انکار": 653, "▁mankind": 654, "▁set": 655, "▁بن": 656, "▁righteous": 657, "▁power": 658, "▁شریک": 659, "▁ever": 660, "▁موت": 661, "▁disbelieve": 662, "و": 663, ".'": 664, "▁محبت": 665, "▁صبر": 666, "▁روز": 667, "▁جواب": 668, "▁To": 669, "▁جیسے": 670, "▁ہوگی": 671, "▁Merciful": 672, "▁دین": 673, "▁nothing": 674, "▁Prophet": 675, "▁غالب": 676, "▁قریب": 677, "t": 678, "▁سی": 679, "▁مجھ": 680, "▁مسیحی": 681, "▁torment": 682, "▁پیش": 683, "▁عورتوں": 684, "▁کردیا": 685, "▁astray": 686, "▁work": 687, "▁whatever": 688, "▁though": 689, "▁رحم": 690, "▁فضل": 691, "▁کرتی": 692, "▁ڈال": 693, "▁خبر": 694, "):": 695, "علیہ": 696, "▁whose": 697, "▁put": 698, "شک": 699, "▁اکثر": 700, "▁deny": 701, "▁first": 702, "▁Muhammad": 703, "▁leave": 704, "▁منہ": 705, "ور": 706, "▁disbelievers": 707, "▁رکھتا": 708, "اں": 709, "▁خوف": 710, "▁آنے": 711, "▁انجام": 712, "▁1": 713, "eth": 714, "▁فرعون": 715, "▁زندہ": 716, "▁--": 717, "▁without": 718, "▁والو": 719, "],": 720, "d": 721, "▁خوش": 722, "▁گناہ": 723, "▁witness": 724, "▁unbelievers": 725, "▁باتیں": 726, "▁غور": 727, "▁کلام": 728, "▁son": 729, "▁whoever": 730, "▁بخشن": 731, "▁پوری": 732, "▁prayer": 733, "▁حصہ": 734, "▁Your": 735, "▁معبود": 736, "▁Lo": 737, "▁none": 738, "▁just": 739, "▁علاوہ": 740, "▁آیتوں": 741, "▁مہربان": 742, "▁قتل": 743, "▁رہی": 744, "▁soul": 745, "▁believed": 746, "▁turned": 747, "▁لگا": 748, "▁دور": 749, "▁Why": 750, "▁سال": 751, "ه": 752, "▁برابر": 753, "▁neither": 754, "▁through": 755, "▁One": 756, "▁promise": 757, "▁religion": 758, "▁کیونکہ": 759, "تا": 760, "▁Hereafter": 761, "▁گا۔": 762, "▁guided": 763, "▁yourselves": 764, "▁۳": 765, "▁seek": 766, "▁یقین": 767, "ص": 768, "کی": 769, "▁آگے": 770, "▁بس": 771, "▁keep": 772, "▁hands": 773, "▁servants": 774, "▁On": 775, "▁Or": 776, "▁Satan": 777, "a": 778, "▁now": 779, "▁نقصان": 780, "▁گروہ": 781, "▁مطابق": 782, "▁ڈر": 783, "▁order": 784, "▁دیکھتے": 785, "▁رکھنے": 786, "▁توبہ": 787, "▁years": 788, "▁جمع": 789, "▁اوپر": 790, "▁yet": 791, "▁تجھے": 792, "▁اچھا": 793, "▁show": 794, "▁Me": 795, "▁آدمی": 796, "▁both": 797, "i": 798, "▁ہلاک": 799, "▁چیزوں": 800, "▁کم": 801, "▁family": 802, "▁think": 803, "▁خرچ": 804, "▁fire": 805, "▁Is": 806, "th": 807, ".’": 808, "▁عہد": 809, "▁آپس": 810, "▁ذکر": 811, "▁دوست": 812, "▁together": 813, "▁remember": 814, "▁heaven": 815, "▁آئیں": 816, "▁چکے": 817, "▁Thus": 818, "تے": 819, "▁Have": 820, "▁شاید": 821, "▁جہاں": 822, "▁much": 823, "▁save": 824, "م": 825, "▁راستہ": 826, "▁says": 827, "▁path": 828, "▁جہنم": 829, "▁ت": 830, "▁پیروی": 831, "▁پڑے": 832, "▁کہو": 833, "▁part": 834, "▁command": 835, "عنقریب": 836, "▁found": 837, "▁_": 838, "▁sign": 839, "▁بھلا": 840, "st": 841, "▁علیہ": 842, "▁۴": 843, "▁گمراہ": 844, "▁برائی": 845, "▁peace": 846, "▁سمجھ": 847, "▁No": 848, "▁حد": 849, "▁guide": 850, "ر": 851, "▁معاف": 852, "▁done": 853, "▁Resurrection": 854, "▁ڈرتے": 855, "▁Abraham": 856, "▁Hell": 857, "▁saying": 858, "▁sin": 859, "سی": 860, "▁heart": 861, "▁رہ": 862, "▁full": 863, "▁واضح": 864, "—": 865, "▁appointed": 866, "▁بالکل": 867, "▁نبی": 868, "▁پسند": 869, "Allah": 870, "▁means": 871, "This": 872, "▁comes": 873, "▁وحی": 874, "▁دیئے": 875, "▁رہتے": 876, "▁رکھو": 877, "▁eyes": 878, "▁cannot": 879, "▁everything": 880, "▁behind": 881, "▁must": 882, "▁brother": 883, "▁words": 884, "▁himself": 885, "▁light": 886, "▁ظالموں": 887, "▁father": 888, "▁forgiveness": 889, "▁۵": 890, "▁سچے": 891, "▁ابراہیم": 892, "تیری": 893, "▁دیکھو": 894, "ِ‌": 895, "نہوں": 896, "▁نیچے": 897, "▁very": 898, "▁سر": 899, "▁end": 900, "▁فائدہ": 901, "▁نکال": 902, "▁dead": 903, "▁Christians": 904, "▁نعمت": 905, "▁called": 906, "▁Israel": 907, "▁towards": 908, "▁تھیں": 909, "▁name": 910, "▁understand": 911, "▁revelations": 912, "The": 913, "▁Pharaoh": 914, "▁speak": 915, "▁خدمت": 916, "▁besides": 917, "▁left": 918, "▁خبردار": 919, "▁hear": 920, "▁ہو۔": 921, "...": 922, "▁شکر": 923, "▁لانے": 924, "▁مالک": 925, "▁enter": 926, "▁example": 927, "▁above": 928, "نیا": 929, "▁news": 930, "▁حرام": 931, "▁hand": 932, "▁wealth": 933, "▁word": 934, "▁تکلیف": 935, "▁بھلائی": 936, "▁told": 937, "▁therefore": 938, "▁obey": 939, "▁برا": 940, "▁اجر": 941, "▁able": 942, "▁بنی": 943, "▁need": 944, "▁forgive": 945, "an": 946, "▁بار": 947, "▁نجات": 948, "▁eat": 949, "▁صاف": 950, "ہی": 951, "▁پھیر": 952, "▁near": 953, "▁زبان": 954, "▁ثابت": 955, "▁تیار": 956, "▁کاموں": 957, "▁آیتیں": 958, "▁thing": 959, "▁ڈرو": 960, "▁concerning": 961, "▁خلاف": 962, "▁جبکہ": 963, "تو": 964, "▁۶": 965, "▁گزر": 966, "▁matter": 967, "▁anything": 968, "▁کرو۔": 969, "▁لیتے": 970, "▁جھٹلایا": 971, "▁painful": 972, "▁These": 973, "▁نکل": 974, "▁کوشش": 975, "▁doubt": 976, "▁حقیقت": 977, "▁sins": 978, "▁Messengers": 979, "▁!": 980, "▁By": 981, "!\"": 982, "▁پہنچا": 983, "▁گمراہی": 984, "▁دیکھیں": 985, "▁س": 986, "▁Quran": 987, "▁ملک": 988, "▁رکھ": 989, "▁belongs": 990, "▁chastisement": 991, "▁لوگو": 992, "▁human": 993, "▁رسولوں": 994, "▁کافی": 995, "▁جیسا": 996, "▁عورت": 997, "▁سن": 998, "▁ال": 999, "▁اچھی": 1000, "▁wills": 1001, "▁مددگار": 1002, "▁کن": 1003, "▁Paul": 1004, "▁چیزیں": 1005, "▁تھے۔": 1006, "▁کرکے": 1007, "▁tell": 1008, "▁Yet": 1009, "▁مرد": 1010, "▁god": 1011, "▁سننے": 1012, "▁ں": 1013, "▁رزق": 1014, "▁خوشی": 1015, "▁وسلم": 1016, "▁parents": 1017, "▁desire": 1018, "▁خاص": 1019, "▁too": 1020, "▁اسرائیل": 1021, "▁die": 1022, "▁off": 1023, "].": 1024, "▁ذمہ": 1025, "▁ماں": 1026, "ذا": 1027, "▁صفحہ": 1028, "▁promised": 1029, "▁شامل": 1030, "▁took": 1031, "▁bear": 1032, "▁مومن": 1033, "▁unjust": 1034, "کہ": 1035, "▁بڑھ": 1036, "▁Thou": 1037, "▁پ": 1038, "▁became": 1039, "▁گواہی": 1040, "▁لہ": 1041, "▁واپس": 1042, "▁کھول": 1043, "▁person": 1044, "▁حاضر": 1045, "▁عزت": 1046, "▁destroyed": 1047, "▁چلے": 1048, "▁لاتے": 1049, "▁Wise": 1050, "▁فرشتے": 1051, "▁مل": 1052, "▁دار": 1053, "▁زبور": 1054, "وہ": 1055, "▁شہر": 1056, "My": 1057, "▁want": 1058, "▁چکا": 1059, "▁creation": 1060, "▁جماعت": 1061, "▁little": 1062, "▁فرماتا": 1063, "▁بوجھ": 1064, "▁spirit": 1065, "▁نیکی": 1066, "▁nation": 1067, "▁دوسروں": 1068, "▁فرمائے": 1069, "▁raised": 1070, "▁apostle": 1071, "▁حالت": 1072, "▁قدرت": 1073, "▁حساب": 1074, "▁long": 1075, "▁ہونا": 1076, "دردناک": 1077, "▁نظر": 1078, "▁wife": 1079, "▁taken": 1080, "▁سوائے": 1081, "▁why": 1082, "▁یوسف": 1083, "▁قرار": 1084, "▁کردے": 1085, "▁بنائے": 1086, "▁نوح": 1087, "▁SAW": 1088, "▁seen": 1089, "▁live": 1090, "▁بغیر": 1091, "▁جھوٹ": 1092, "▁days": 1093, "▁۱۰": 1094, "▁بلند": 1095, "▁alone": 1096, "▁faithful": 1097, "▁gives": 1098, "▁same": 1099, "▁خواہش": 1100, "▁کروں": 1101, "ع": 1102, "▁موجود": 1103, "▁get": 1104, "▁آواز": 1105, "▁جنت": 1106, "▁sons": 1107, "خدا": 1108, "▁trust": 1109, "▁Christian": 1110, "▁People": 1111, "and": 1112, "▁already": 1113, "for": 1114, "▁استعمال": 1115, "•": 1116, "▁error": 1117, "▁باعث": 1118, "?”": 1119, "▁Kingdom": 1120, "▁سکیں": 1121, "▁page": 1122, "▁account": 1123, "▁doing": 1124, "▁لینے": 1125, "▁Paradise": 1126, "▁old": 1127, "▁ذریعے": 1128, "▁دعا": 1129, "▁Witnesses": 1130, "▁سکتی": 1131, "▁brothers": 1132, "▁Unto": 1133, "▁etc": 1134, "▁متی": 1135, "▁fathers": 1136, "▁verses": 1137, "▁روشن": 1138, "▁دشمن": 1139, "▁fight": 1140, "▁lie": 1141, "▁asked": 1142, "▁صاحب": 1143, "▁ذریعہ": 1144, "▁یوں": 1145, "▁نہریں": 1146, "▁ملے": 1147, "▁مضبوط": 1148, "▁manifest": 1149, "▁مختلف": 1150, "▁anyone": 1151, "▁احسان": 1152, "▁Their": 1153, "▁جنگ": 1154, "Muhammad": 1155, "▁messengers": 1156, "▁بولے": 1157, "▁اطاعت": 1158, "▁sky": 1159, "▁ہوگئے": 1160, "▁عقل": 1161, "▁شروع": 1162, "ل": 1163, "▁سمجھتے": 1164, "▁۱۲": 1165, "▁صبح": 1166, "▁خوشخبری": 1167, "اللہ": 1168, "▁spend": 1169, "▁2": 1170, "▁Truth": 1171, "▁نزدیک": 1172, "If": 1173, "!)": 1174, "▁پہنچ": 1175, "▁Christ": 1176, "نہایت": 1177, "▁far": 1178, "And": 1179, "▁الس": 1180, "▁سچ": 1181, "▁Will": 1182, "سب": 1183, "▁بیوی": 1184, "▁قدر": 1185, "▁fact": 1186, "▁بھیجے": 1187, "▁علیھ": 1188, "▁whosoever": 1189, "▁works": 1190, "▁موس": 1191, "▁ادا": 1192, "سجدہ": 1193, "▁wish": 1194, "You": 1195, "▁سوال": 1196, "▁بچا": 1197, "doers": 1198, "▁سنا": 1199, "▁Forgiving": 1200, "▁پہلی": 1201, "▁again": 1202, ",\"": 1203, "▁لائیں": 1204, "▁face": 1205, "اپنے": 1206, "▁receive": 1207, "▁۱۵": 1208, "▁۷": 1209, "▁لکھا": 1210, "▁قابل": 1211, "▁tidings": 1212, "▁یعنی": 1213, "▁تعلیم": 1214, "▁جانا": 1215, "▁رکھی": 1216, "▁اچھے": 1217, "▁کیساتھ": 1218, "▁کار": 1219, "▁ضرورت": 1220, "▁something": 1221, "▁دینا": 1222, "▁desires": 1223, "▁واقعی": 1224, "▁آئی": 1225, "▁کلیسیا": 1226, "▁بادشاہ": 1227, "▁۱۱": 1228, "▁تجھ": 1229, "▁پرہیزگار": 1230, "▁wives": 1231, "▁new": 1232, "▁روح": 1233, "▁taste": 1234, "▁اجازت": 1235, "▁بیٹے": 1236, "Our": 1237, "▁covenant": 1238, "▁بہن": 1239, "▁Word": 1240, "▁جی": 1241, "▁disbelieved": 1242, "▁food": 1243, "▁provided": 1244, "▁Such": 1245, "▁drink": 1246, "▁gardens": 1247, "▁lies": 1248, "▁آیات": 1249, "▁بچوں": 1250, "▁harm": 1251, "▁سارے": 1252, "▁آخر": 1253, "▁کھڑے": 1254, "▁کیسا": 1255, "▁۸": 1256, "▁۹": 1257, "ئے": 1258, "What": 1259, "▁چل": 1260, "▁بدلے": 1261, "▁دادا": 1262, "▁hell": 1263, "▁بری": 1264, "ں": 1265, "▁going": 1266, "لام": 1267, "▁بہترین": 1268, "▁home": 1269, "▁بابت": 1270, "▁دیکھنے": 1271, "▁فرشتوں": 1272, "It": 1273, "▁پکڑ": 1274, "▁ٹھیک": 1275, "▁پولس": 1276, "▁rivers": 1277, "▁mountains": 1278, "▁تصویر": 1279, "▁times": 1280, "▁ج": 1281, "▁serve": 1282, "▁جہاد": 1283, "▁blessings": 1284, "▁باغ": 1285, "▁look": 1286, "▁پناہ": 1287, "▁makes": 1288, "▁انصاف": 1289, "He": 1290, "▁باز": 1291, "▁جلدی": 1292, "▁provision": 1293, "▁hope": 1294, "▁share": 1295, "▁today": 1296, "▁کھلی": 1297, "as": 1298, "▁سلسلے": 1299, "▁recompense": 1300, "▁نفس": 1301, "▁فرمائی": 1302, "▁عورتیں": 1303, "▁denied": 1304, "▁sea": 1305, "▁saw": 1306, "▁knew": 1307, "▁having": 1308, "▁sun": 1309, "عا": 1310, "▁مصیبت": 1311, "▁رکھے": 1312, "▁انتظار": 1313, "▁سکے": 1314, "▁پکار": 1315, "▁کھا": 1316, "▁Noah": 1317, "▁نافرمانی": 1318, "▁مسلمان": 1319, "▁thereof": 1320, "▁تاہم": 1321, "▁authority": 1322, "▁البتہ": 1323, "▁benefit": 1324, "▁ق": 1325, "▁kind": 1326, "▁محض": 1327, "▁لعنت": 1328, "▁messenger": 1329, "▁کئی": 1330, "▁دوسری": 1331, "▁term": 1332, "▁تین": 1333, "▁۱۴": 1334, "Do": 1335, "▁under": 1336, "▁فساد": 1337, "▁greater": 1338, "▁ہوجائے": 1339, "▁judge": 1340, "▁چاہیں": 1341, "▁مشرک": 1342, "▁praise": 1343, "▁طاقت": 1344, "▁Let": 1345, "▁truthful": 1346, "▁whether": 1347, "▁بخش": 1348, "▁بچے": 1349, "▁کہتا": 1350, "▁cast": 1351, "▁associate": 1352, "▁سچا": 1353, "▁مریم": 1354, "▁Nay": 1355, "▁remain": 1356, "▁ہوگیا": 1357, "▁لی": 1358, "▁حضور": 1359, "▁faces": 1360, "▁lest": 1361, "گی": 1362, "▁بندے": 1363, "▁equal": 1364, "▁آتے": 1365, "▁دوں": 1366, "▁۱۳": 1367, "▁تلاش": 1368, "▁still": 1369, "▁use": 1370, "وآلہ": 1371, "▁تیرا": 1372, "▁thus": 1373, "▁راست": 1374, "▁سامان": 1375, "ین": 1376, "▁اتارا": 1377, "▁پہنچے": 1378, "▁رکھیں": 1379, "▁known": 1380, "▁mother": 1381, "▁soon": 1382, "▁چاہیے": 1383, "▁wronged": 1384, "▁wisdom": 1385, "▁/": 1386, "▁دلیل": 1387, "▁forbidden": 1388, "▁اٹھا": 1389, "▁believing": 1390, "▁feel": 1391, "▁تسبیح": 1392, "▁three": 1393, "▁محفوظہ": 1394, "▁اندر": 1395, "▁انسانوں": 1396, "▁رجوع": 1397, "▁جلد": 1398, "God": 1399, "▁آؤ": 1400, "▁دیے": 1401, "▁pay": 1402, "▁ابھی": 1403, "▁Qur": 1404, "▁David": 1405, "▁free": 1406, "▁صورت": 1407, "▁living": 1408, "▁Scripture": 1409, "▁قادر": 1410, "▁کھلا": 1411, "▁روک": 1412, "▁city": 1413, "▁followed": 1414, "▁souls": 1415, "▁present": 1416, "▁سبب": 1417, "▁ڈالا": 1418, "▁spiritual": 1419, "▁اختلاف": 1420, "▁اگرچہ": 1421, "▁ذرا": 1422, "▁آزمائش": 1423, "▁چند": 1424, "▁stand": 1425, "▁پھل": 1426, "▁during": 1427, "▁patient": 1428, "▁few": 1429, "▁پڑھ": 1430, "جو": 1431, "▁محفوظ": 1432, "▁gods": 1433, "▁Children": 1434, "▁لوٹ": 1435, "▁راه": 1436, "▁خاندان": 1437, "▁داؤد": 1438, "▁باطل": 1439, "▁sight": 1440, "▁ٹھکانا": 1441, "all": 1442, "▁flow": 1443, "▁آتا": 1444, "▁کہے": 1445, "▁number": 1446, "▁زیادتی": 1447, "▁severe": 1448, "▁روزی": 1449, "▁بھیج": 1450, "▁کھاؤ": 1451, "▁کھانا": 1452, "▁truly": 1453, "▁apostles": 1454, "▁till": 1455, "▁congregation": 1456, "▁مت": 1457, "from": 1458, "▁وارث": 1459, "▁عمر": 1460, "▁آسان": 1461, "▁Knowing": 1462, "▁گویا": 1463, "▁طلب": 1464, "▁۱۷": 1465, "▁موقع": 1466, "▁گزار": 1467, "▁پاکیزہ": 1468, "▁Adam": 1469, "▁دوبارہ": 1470, "▁forever": 1471, "▁Some": 1472, "▁morning": 1473, "▁enemy": 1474, "▁لاؤ": 1475, "▁toward": 1476, "ؤں": 1477, "▁مہلت": 1478, "est": 1479, "▁accept": 1480, "soever": 1481, "▁زبردست": 1482, "▁جاری": 1483, "▁returned": 1484, "▁گ": 1485, "▁بھروسہ": 1486, "▁went": 1487, "▁course": 1488, "it": 1489, "▁gone": 1490, "▁Had": 1491, "▁commanded": 1492, "▁پا": 1493, "دار": 1494, "▁۱۶": 1495, "▁ختم": 1496, "▁گناہوں": 1497, "▁پیغام": 1498, "▁اٹھائے": 1499, "▁مقابلہ": 1500, "کل": 1501, "▁warner": 1502, "▁آدم": 1503, "on": 1504, "▁rejected": 1505, "▁مردوں": 1506, "▁کاش": 1507, "▁ہوجائیں": 1508, "▁آنکھوں": 1509, "▁الگ": 1510, "▁art": 1511, "▁یوحنا": 1512, "▁Joseph": 1513, "▁answer": 1514, "▁معاملہ": 1515, "▁Even": 1516, "▁ساری": 1517, ");": 1518, "قرآن": 1519, "▁بدل": 1520, "▁زور": 1521, "▁درخت": 1522, "▁طریقہ": 1523, "▁ملا": 1524, "▁consider": 1525, "▁ways": 1526, "▁والدین": 1527, "▁یعقوب": 1528, "▁کہاں": 1529, "▁lead": 1530, "▁تب": 1531, "نا": 1532, "▁کھانے": 1533, "▁جادو": 1534, "▁warn": 1535, "▁روحانی": 1536, "▁امید": 1537, "عذاب": 1538, "▁hard": 1539, "▁ہوں۔": 1540, "▁بیٹھے": 1541, "▁باقی": 1542, "er": 1543, "▁within": 1544, "▁book": 1545, "▁woman": 1546, "▁around": 1547, "▁reject": 1548, "▁پڑ": 1549, "▁Gardens": 1550, "▁Hour": 1551, "▁باہر": 1552, "▁پایا": 1553, "▁مٹی": 1554, "▁حلال": 1555, "▁پہاڑ": 1556, "▁hold": 1557, "▁act": 1558, "▁reach": 1559, "▁refuge": 1560, "▁bestowed": 1561, "▁اہم": 1562, "“": 1563, "▁Therefore": 1564, "▁partners": 1565, "▁پائیں": 1566, "▁heard": 1567, "▁blind": 1568, "▁according": 1569, "▁مشکل": 1570, "▁صاحبان": 1571, "▁آنکھیں": 1572, "▁فرماؤ": 1573, "▁ڈرانے": 1574, "▁listen": 1575, "▁پائے": 1576, "▁مزہ": 1577, "▁باخبر": 1578, "▁کان": 1579, "▁گمان": 1580, "▁along": 1581, "▁رہنا": 1582, "▁read": 1583, "▁caused": 1584, "▁pray": 1585, "▁نگاہ": 1586, "\".": 1587, "▁here": 1588, "▁خواہ": 1589, "▁easy": 1590, "▁غم": 1591, "▁grace": 1592, "▁مسلمانوں": 1593, "▁مبتلا": 1594, "▁مار": 1595, "▁سا": 1596, "▁making": 1597, "▁She": 1598, "▁بخشش": 1599, "▁بنانے": 1600, "▁prepared": 1601, "▁thought": 1602, "▁سورج": 1603, "▁friends": 1604, "▁change": 1605, "▁لا": 1606, "▁measure": 1607, "▁ه": 1608, "▁pass": 1609, "▁سلام": 1610, "▁سرکشی": 1611, "اپنی": 1612, "▁mind": 1613, "▁تھا۔": 1614, "▁certain": 1615, "%": 1616, "▁Did": 1617, "▁بناتے": 1618, "▁message": 1619, "▁reason": 1620, "▁بھر": 1621, "▁دوران": 1622, "▁پلٹ": 1623, "▁Jews": 1624, "▁بھائیوں": 1625, "▁نکاح": 1626, "▁guides": 1627, "▁duty": 1628, "▁شان": 1629, "▁punish": 1630, "▁جزا": 1631, "▁taught": 1632, "▁غیب": 1633, "▁شرک": 1634, "▁بستی": 1635, "▁چار": 1636, "▁عرض": 1637, "▁swear": 1638, "▁ہاتھوں": 1639, "▁تعریف": 1640, "▁باوجود": 1641, "▁صحیح": 1642, "ؑ": 1643, "▁learn": 1644, "▁bounty": 1645, "▁child": 1646, "▁چکی": 1647, "▁seized": 1648, "▁unless": 1649, "▁fall": 1650, "▁چلا": 1651, "▁destroy": 1652, "▁کررہے": 1653, "▁create": 1654, "▁لوط": 1655, "▁straight": 1656, "▁کھاتے": 1657, "▁mighty": 1658, "▁او": 1659, "▁wicked": 1660, "▁سات": 1661, "▁ساتھی": 1662, "▁۱۹": 1663, "▁willed": 1664, "▁Musa": 1665, "▁خون": 1666, "▁helped": 1667, "▁بند": 1668, "▁open": 1669, "تی": 1670, "▁Mary": 1671, "▁Mighty": 1672, "▁نور": 1673, "▁lost": 1674, "▁case": 1675, "▁archive": 1676, "▁kill": 1677, "▁due": 1678, "▁house": 1679, "▁جانب": 1680, "▁Last": 1681, "▁aware": 1682, "▁آجائے": 1683, "y": 1684, "▁favour": 1685, "▁please": 1686, "▁مدت": 1687, "▁تصدیق": 1688, "▁homes": 1689, "▁group": 1690, "▁Now": 1691, "▁بتایا": 1692, "▁حفاظت": 1693, "▁seven": 1694, "▁passed": 1695, "▁برے": 1696, "▁grieve": 1697, "▁پانے": 1698, "▁کردیں": 1699, "▁واقف": 1700, "▁provide": 1701, "▁مقام": 1702, "▁*": 1703, "▁کامیابی": 1704, "▁مطلب": 1705, "▁abide": 1706, "re": 1707, "▁Believers": 1708, "▁received": 1709, "▁عظیم": 1710, "▁روشنی": 1711, "▁Whoever": 1712, "▁brings": 1713, "▁گر": 1714, "▁However": 1715, "▁glad": 1716, "▁قوت": 1717, "▁With": 1718, "▁جھوٹے": 1719, "▁سنتے": 1720, "▁whomever": 1721, "▁young": 1722, "▁high": 1723, "▁کرنی": 1724, "▁3": 1725, "▁دیکھے": 1726, "▁پیٹھ": 1727, "▁۱۸": 1728, "▁Are": 1729, "▁محسوس": 1730, "▁مذاق": 1731, "▁firm": 1732, "ک": 1733, "▁falsehood": 1734, "▁righteousness": 1735, "▁پڑھیں": 1736, "or": 1737, "▁thanks": 1738, "▁پرستش": 1739, "▁۲۰": 1740, "▁۲۴": 1741, "▁age": 1742, "▁ثواب": 1743, "▁دریا": 1744, "▁guilty": 1745, "▁disbelief": 1746, "▁blood": 1747, "▁prayers": 1748, "▁wrongdoers": 1749, "▁مر": 1750, "▁single": 1751, "ایک": 1752, "▁قدم": 1753, "▁صریح": 1754, "▁rain": 1755, "▁saved": 1756, "▁Judgment": 1757, "▁earned": 1758, "▁Knower": 1759, "▁کہنا": 1760, "سکے": 1761, "▁justice": 1762, "▁اگلے": 1763, "▁Picture": 1764, "▁moon": 1765, "r": 1766, "▁lo": 1767, "▁losers": 1768, "▁behold": 1769, "▁accepted": 1770, "▁lawful": 1771, "▁مہر": 1772, "▁understanding": 1773, "▁پاؤں": 1774, "▁abode": 1775, "▁turns": 1776, "▁پکارتے": 1777, "▁Signs": 1778, "▁بارگاہ": 1779, "▁permission": 1780, "ہے": 1781, "▁houses": 1782, "▁guard": 1783, "▁لیتا": 1784, "▁year": 1785, "▁برکت": 1786, "▁meet": 1787, "▁منکر": 1788, "▁بادشاہت": 1789, "▁heed": 1790, "▁John": 1791, "▁نعمتوں": 1792, "▁cattle": 1793, "▁study": 1794, "▁poor": 1795, "▁کتنی": 1796, "▁جھٹلاؤ": 1797, "▁لکھ": 1798, "انہ": 1799, "▁At": 1800, "▁patience": 1801, "▁commit": 1802, "▁واقع": 1803, "▁چاند": 1804, "▁کشتی": 1805, "▁شادی": 1806, "▁جیسی": 1807, "▁پورے": 1808, "▁blessed": 1809, "▁برباد": 1810, "▁چلنے": 1811, "▁hypocrites": 1812, "▁ارادہ": 1813, "▁Apostle": 1814, "with": 1815, "ات": 1816, "▁Of": 1817, "▁respect": 1818, "▁طریقے": 1819, "▁مومنوں": 1820, "▁bad": 1821, "▁نسبت": 1822, "▁حکومت": 1823, "▁نگہبان": 1824, "کا": 1825, "▁whatsoever": 1826, "▁انہی": 1827, "▁marriage": 1828, "▁evidence": 1829, "▁later": 1830, "▁سفر": 1831, "▁تنگ": 1832, "▁امن": 1833, "▁Be": 1834, "▁لگتا": 1835, "▁ذات": 1836, "▁b": 1837, "▁increase": 1838, "▁جھوٹا": 1839, "▁بشارت": 1840, "▁حالات": 1841, "▁false": 1842, "m": 1843, "▁fruits": 1844, "▁service": 1845, "▁نبیؐ": 1846, "▁راستے": 1847, "▁dust": 1848, "▁replied": 1849, "▁granted": 1850, "▁party": 1851, "▁ہوجاؤ": 1852, "▁سچائی": 1853, "▁زکو": 1854, "▁prostrate": 1855, "▁کمزور": 1856, "▁kingdom": 1857, "▁بیٹا": 1858, "▁سلیمان": 1859, "▁آتی": 1860, "▁holy": 1861, "▁مہربانی": 1862, ")!": 1863, "▁grateful": 1864, "▁sure": 1865, "▁rest": 1866, "▁غضب": 1867, "▁coming": 1868, "▁ذلیل": 1869, "▁غلط": 1870, "Moses": 1871, "▁suffer": 1872, "▁شمار": 1873, "▁avail": 1874, "▁close": 1875, "▁پاؤ": 1876, "▁بجائے": 1877, "▁امت": 1878, "▁Al": 1879, "▁لشکر": 1880, "▁عاجز": 1881, "▁repent": 1882, "Indeed": 1883, "▁لایا": 1884, "▁warning": 1885, "▁speech": 1886, "▁مغفرت": 1887, "▁اتار": 1888, "نہ": 1889, "▁darkness": 1890, "▁repentance": 1891, "▁فکر": 1892, "▁placed": 1893, "▁purpose": 1894, "▁friend": 1895, "▁مرتبہ": 1896, "اب": 1897, "▁chosen": 1898, "▁جانوں": 1899, "▁sustenance": 1900, "▁hidden": 1901, "▁yourself": 1902, "▁اٹھانے": 1903, "▁نا": 1904, "▁فرمانے": 1905, "▁بھول": 1906, "▁strength": 1907, "▁شاگرد": 1908, "▁last": 1909, "▁تباہ": 1910, "▁seeking": 1911, "▁pleased": 1912, "▁سوچ": 1913, "▁رہتا": 1914, "▁دکھا": 1915, "▁مزید": 1916, "?'": 1917, "▁رکھنا": 1918, "زمانے": 1919, "▁رشتہ": 1920, "▁غیر": 1921, "▁grant": 1922, "▁tree": 1923, "▁کیا۔": 1924, "▁چلو": 1925, "▁متعلق": 1926, "▁try": 1927, "▁wait": 1928, "▁ثمود": 1929, "▁نفع": 1930, "▁سردار": 1931, "▁always": 1932, ")?": 1933, "پھر": 1934, "▁Noble": 1935, "▁fruit": 1936, "▁After": 1937, "▁بزرگ": 1938, "knowing": 1939, "▁jinn": 1940, "▁someone": 1941, "▁delivered": 1942, "▁درست": 1943, "▁killed": 1944, "▁دعوت": 1945, "▁ourselves": 1946, "▁hap": 1947, "▁Muslims": 1948, "▁nations": 1949, "▁backs": 1950, "▁پطرس": 1951, "▁نئی": 1952, "▁پیغمبروں": 1953, "▁really": 1954, "▁Which": 1955, "▁war": 1956, "▁important": 1957, "▁enjoy": 1958, "▁بندگی": 1959, "▁folk": 1960, "▁ill": 1961, "▁۲۱": 1962, "سیدھی": 1963, "▁ارشاد": 1964, "▁دیا۔": 1965, "E": 1966, "▁began": 1967, "▁hide": 1968, "▁wise": 1969, "▁ل": 1970, "▁enemies": 1971, "▁ممکن": 1972, "▁قربانی": 1973, "▁لائق": 1974, "▁four": 1975, "ء": 1976, "▁lives": 1977, "▁town": 1978, "▁prophet": 1979, "▁hasten": 1980, "▁دیتی": 1981, "▁منع": 1982, "سکی": 1983, "▁kept": 1984, "▁پیٹ": 1985, "▁۲۲": 1986, "ہم": 1987, "▁recite": 1988, "▁راضی": 1989, "▁شے": 1990, "▁conceal": 1991, "wise": 1992, "▁ہزار": 1993, "ز": 1994, "▁led": 1995, "▁سیدھے": 1996, "▁witnesses": 1997, "▁بیماری": 1998, "▁سنانے": 1999, "میں": 2000, "▁pure": 2001, "▁ٹکڑے": 2002, "▁15": 2003, "▁apart": 2004, "▁slave": 2005, "Who": 2006, "▁چہر": 2007, "▁secure": 2008, "▁احکام": 2009, "▁theirs": 2010, "▁بلا": 2011, "▁خادم": 2012, "▁Read": 2013, "al": 2014, "▁small": 2015, "▁following": 2016, "▁سرکش": 2017, "تم": 2018, "▁پوشیدہ": 2019, "▁دیکھتا": 2020, "▁دیگر": 2021, "▁side": 2022, "▁different": 2023, "▁cut": 2024, "▁stay": 2025, "▁تدبیر": 2026, "▁اصلاح": 2027, "▁From": 2028, "▁جھٹلانے": 2029, "▁followers": 2030, ").\"": 2031, "▁چلتے": 2032, "▁dispute": 2033, "▁strong": 2034, "▁raise": 2035, "▁burden": 2036, "their": 2037, "صلی": 2038, "▁wrote": 2039, "▁Yes": 2040, "▁بنائیں": 2041, "▁admonition": 2042, "▁عالم": 2043, "کیا": 2044, "▁شام": 2045, "▁naught": 2046, "▁C": 2047, "by": 2048, "▁grow": 2049, "▁کیجئے": 2050, "▁افسوس": 2051, "▁recited": 2052, "▁در": 2053, "▁giving": 2054, "▁often": 2055, "▁Path": 2056, "▁ears": 2057, "▁established": 2058, "▁spread": 2059, "▁فریب": 2060, "▁fast": 2061, "▁عاد": 2062, "▁feet": 2063, "▁remembrance": 2064, "▁درگزر": 2065, "▁بہتان": 2066, "▁either": 2067, "▁respite": 2068, "▁conduct": 2069, "▁question": 2070, "▁reached": 2071, "ش": 2072, "▁ن": 2073, "▁تخت": 2074, "▁تھوڑا": 2075, "▁پائی": 2076, "▁کردی": 2077, "▁daughters": 2078, "▁faithless": 2079, "▁protect": 2080, "▁terrible": 2081, "▁امثال": 2082, "▁مانتے": 2083, "▁5": 2084, "▁creatures": 2085, "▁female": 2086, "▁13": 2087, "▁ڈالے": 2088, "▁aught": 2089, "▁dear": 2090, "▁Himself": 2091, "▁سمندر": 2092, "▁دوستی": 2093, "▁رنگ": 2094, "▁secret": 2095, "▁excellent": 2096, "▁support": 2097, "▁آرام": 2098, "▁plain": 2099, "▁Solomon": 2100, "▁reveal": 2101, "▁test": 2102, "▁بخشی": 2103, "▁establish": 2104, "▁کھیتی": 2105, "▁کب": 2106, "▁generations": 2107, "▁مانو": 2108, "▁کفار": 2109, "Why": 2110, "that": 2111, "▁Can": 2112, "▁ہوکر": 2113, "S": 2114, "▁4": 2115, "▁preaching": 2116, "▁liars": 2117, "▁least": 2118, "▁نافرمان": 2119, "▁past": 2120, "▁کھیل": 2121, "▁self": 2122, "▁talk": 2123, "ب": 2124, "▁خیر": 2125, "▁reminder": 2126, "▁چاہو": 2127, "▁disciples": 2128, "▁فرمانبردار": 2129, "▁revelation": 2130, "▁تر": 2131, "دہ": 2132, "قابو": 2133, "▁fulfilled": 2134, "▁sense": 2135, "دنیا": 2136, "▁خواب": 2137, "▁meeting": 2138, "▁تکبر": 2139, "▁gain": 2140, "▁پکارا": 2141, "--": 2142, "▁sinners": 2143, "▁husband": 2144, "▁بادشاہی": 2145, "▁جانوروں": 2146, "▁جہ": 2147, "▁نسل": 2148, "forgiving": 2149, "▁cry": 2150, "▁Would": 2151, "▁result": 2152, "▁Mercy": 2153, "A": 2154, "▁عیسی": 2155, "▁Exalted": 2156, "▁gather": 2157, "▁kindness": 2158, "▁سامنا": 2159, "▁جہان": 2160, "مید": 2161, "▁humans": 2162, "▁بنائی": 2163, "▁blame": 2164, "▁اصل": 2165, "▁ڈرتا": 2166, "▁کاٹ": 2167, "▁perhaps": 2168, "▁state": 2169, "▁بھیجی": 2170, "ۂ": 2171, "▁سوار": 2172, "▁سیدھا": 2173, "▁پہاڑوں": 2174, "▁۲۳": 2175, "▁matters": 2176, "▁پڑا": 2177, "▁favor": 2178, "▁avoid": 2179, "▁regarding": 2180, "▁برحق": 2181, "▁مسجد": 2182, "▁See": 2183, "▁کل": 2184, "▁Not": 2185, "▁حقیقی": 2186, "▁پڑھتے": 2187, "▁6": 2188, "▁منافق": 2189, "▁Nor": 2190, "▁inspired": 2191, "▁ضروری": 2192, "▁rather": 2193, "▁admit": 2194, "▁مضمون": 2195, "ہر": 2196, "▁Father": 2197, "▁belong": 2198, "▁صالح": 2199, "کچھ": 2200, "▁considered": 2201, "▁instead": 2202, "”;": 2203, "▁beneath": 2204, "▁whole": 2205, "▁presence": 2206, "▁دروازے": 2207, "▁شوہر": 2208, "▁مقصد": 2209, "▁اثر": 2210, "نادی": 2211, "▁برس": 2212, "▁اتاری": 2213, "▁once": 2214, "▁produce": 2215, "▁portion": 2216, "▁سچی": 2217, "سم": 2218, "▁14": 2219, "▁پہچان": 2220, "▁loss": 2221, "▁دراصل": 2222, "▁سلطنت": 2223, "▁مان": 2224, "▁حمد": 2225, "▁دنوں": 2226, "▁فرق": 2227, "▁اضافہ": 2228, "▁months": 2229, "▁magic": 2230, "▁مانند": 2231, "▁نہیں۔": 2232, "▁بولا": 2233, "▁King": 2234, "▁charity": 2235, "▁unseen": 2236, "▁Tell": 2237, "at": 2238, "▁بیویوں": 2239, "▁تھوڑی": 2240, "▁worlds": 2241, "▁شکار": 2242, "▁جادوگر": 2243, "▁12": 2244, "▁جھگڑا": 2245, "▁thereby": 2246, "▁knoweth": 2247, "▁offer": 2248, "▁مرضی": 2249, "▁قبل": 2250, "▁%": 2251, "▁3:": 2252, "▁Lot": 2253, "▁oaths": 2254, "▁مکر": 2255, "▁بتا": 2256, "▁تکذیب": 2257, "▁view": 2258, "▁however": 2259, "▁ملاقات": 2260, "▁strive": 2261, "▁walk": 2262, "▁جانور": 2263, "ج": 2264, "▁لگی": 2265, "اؤں": 2266, "▁gathered": 2267, "▁کھڑا": 2268, "▁گی۔": 2269, "▁خاطر": 2270, "▁غافل": 2271, "▁idols": 2272, "▁ministry": 2273, "▁warned": 2274, "▁Certainly": 2275, "▁لگیں": 2276, "▁گھیر": 2277, "▁وفادار": 2278, "▁کتابوں": 2279, "▁wants": 2280, "▁helper": 2281, "▁Peter": 2282, "▁forget": 2283, "▁آگاہ": 2284, "▁غلام": 2285, "▁law": 2286, "▁آزاد": 2287, "▁مطالعہ": 2288, "▁پتہ": 2289, "▁Aware": 2290, "▁hearing": 2291, "▁submit": 2292, "▁توجہ": 2293, "▁منتخب": 2294, "▁Except": 2295, "▁judgment": 2296, "▁ذلت": 2297, "Islamic": 2298, "▁reckoning": 2299, "▁ناحق": 2300, "▁care": 2301, "▁pleases": 2302, "▁dwell": 2303, "▁صلی": 2304, "▁20": 2305, "▁whereas": 2306, "▁حوصلہ": 2307, "▁draw": 2308, "▁اسلام": 2309, "▁یہودی": 2310, "▁control": 2311, "▁affair": 2312, "▁Ibrahim": 2313, "▁afraid": 2314, "▁happy": 2315, "▁امانت": 2316, "▁deliver": 2317, "▁cried": 2318, "▁کامیاب": 2319, "▁reflect": 2320, "▁تعلق": 2321, "▁مجرم": 2322, "▁دوسرا": 2323, "▁فائلیں": 2324, "▁پھونک": 2325, "▁Does": 2326, "▁taking": 2327, "▁Garden": 2328, "▁possess": 2329, "▁victory": 2330, "▁گنہگار": 2331, "▁offspring": 2332, "▁جتن": 2333, "▁Faith": 2334, "▁فراہم": 2335, "▁فتح": 2336, "▁pious": 2337, "▁king": 2338, "▁خشک": 2339, "▁گردن": 2340, "▁garden": 2341, "▁pleasure": 2342, "They": 2343, "▁proud": 2344, "▁یسعیاہ": 2345, "رے": 2346, "▁Many": 2347, "▁drive": 2348, "▁waiting": 2349, "▁عرش": 2350, "▁Oft": 2351, "ۃ": 2352, "▁کیسی": 2353, "▁trial": 2354, "▁قوموں": 2355, "▁کردہ": 2356, "▁مذہب": 2357, "▁مخالفت": 2358, "▁glory": 2359, "▁محبوب": 2360, "▁سختی": 2361, "▁غلطی": 2362, "▁answered": 2363, "▁لہذا": 2364, "▁Creator": 2365, "▁loves": 2366, "▁slaves": 2367, "▁Remember": 2368, "▁teach": 2369, "ری": 2370, "▁curse": 2371, "▁ہارون": 2372, "ایل": 2373, "▁journey": 2374, "▁تقریبا": 2375, "؟\"": 2376, "▁الفاظ": 2377, "▁منادی": 2378, "▁نیاز": 2379, "▁ورنہ": 2380, "▁proof": 2381, "n": 2382, "▁causes": 2383, "▁توڑ": 2384, "▁ungrateful": 2385, "▁سکو": 2386, "▁پرہیزگاری": 2387, "▁پھینک": 2388, "ایمان": 2389, "▁Thamud": 2390, "▁beyond": 2391, "▁ہلاکت": 2392, "▁کتنا": 2393, "▁رحمان": 2394, "▁چکھو": 2395, "▁continue": 2396, "▁11": 2397, "▁فلاح": 2398, "▁ordained": 2399, "▁لینا": 2400, "▁worldly": 2401, "▁16": 2402, "▁counsel": 2403, "▁پوجتے": 2404, "▁fair": 2405, "▁جھٹلا": 2406, "▁فورا": 2407, "▁سنتا": 2408, "▁قسمیں": 2409, "▁گار": 2410, "▁آدمیوں": 2411, "▁suffering": 2412, "▁hast": 2413, "▁اتنا": 2414, "▁خدائے": 2415, "▁arrogant": 2416, "▁next": 2417, "▁مانگ": 2418, "▁کرنتھیوں": 2419, "▁clearly": 2420, "▁blessing": 2421, "▁10": 2422, "▁fully": 2423, "▁touch": 2424, "▁پینے": 2425, "▁بد": 2426, "▁۲۸": 2427, "▁loving": 2428, "▁wind": 2429, "▁wanted": 2430, "▁فرض": 2431, "When": 2432, "▁manner": 2433, "▁servant": 2434, "▁میدان": 2435, "▁body": 2436, "▁Said": 2437, "▁standing": 2438, "▁عام": 2439, "▁clay": 2440, "▁بچہ": 2441, "▁تابع": 2442, "▁شراب": 2443, "جب": 2444, "▁ح": 2445, "▁لحاظ": 2446, "▁کی۔": 2447, "▁steadfast": 2448, "▁بچ": 2449, "▁تباہی": 2450, "▁پی": 2451, "قیامت": 2452, "▁باغوں": 2453, "▁evening": 2454, "merciful": 2455, "▁wrath": 2456, "▁جھٹلات": 2457, "▁مکمل": 2458, "▁mentioned": 2459, "▁sacrifice": 2460, "▁inform": 2461, "▁8": 2462, "▁sisters": 2463, "▁کریں۔": 2464, "▁۲۵": 2465, "▁بیٹوں": 2466, "▁درج": 2467, "▁sees": 2468, "▁else": 2469, "▁دریافت": 2470, "▁complete": 2471, "▁story": 2472, "▁decree": 2473, "▁دودھ": 2474, "▁corruption": 2475, "▁showed": 2476, "▁ہوگئی": 2477, "▁Holy": 2478, "▁فیصلے": 2479, "▁Throne": 2480, "▁واسطے": 2481, "▁takes": 2482, "▁invoke": 2483, "▁language": 2484, "▁Psalm": 2485, "▁polytheists": 2486, "▁companions": 2487, "▁forward": 2488, "▁کرم": 2489, "▁Scriptures": 2490, "▁thereafter": 2491, "ردوں": 2492, "▁زیاده": 2493, "▁affairs": 2494, "▁پاتے": 2495, "▁پوچھا": 2496, "?’": 2497, "▁Way": 2498, "▁2:": 2499, "▁belied": 2500, "▁destination": 2501, "▁Islam": 2502, "▁کیں": 2503, "▁future": 2504, "▁joy": 2505, "▁transgressors": 2506, "▁تحقیق": 2507, "▁رستے": 2508, "▁تعداد": 2509, "▁خالص": 2510, "▁فائدے": 2511, "لوگوں": 2512, "▁sufficient": 2513, "▁written": 2514, "▁similar": 2515, "▁سمجھنے": 2516, "▁دیر": 2517, "▁فرمان": 2518, "▁ملنے": 2519, "▁Monotheism": 2520, "▁belief": 2521, "▁لڑائی": 2522, "▁flesh": 2523, "▁ransom": 2524, "باع": 2525, "▁guardian": 2526, "▁اچانک": 2527, "▁ہوگا۔": 2528, "▁myself": 2529, "▁Great": 2530, "▁قید": 2531, "▁fellow": 2532, "▁صدی": 2533, "▁Truly": 2534, "▁رہنمائی": 2535, "▁چاہا": 2536, "saying": 2537, "▁money": 2538, "▁property": 2539, "▁ات": 2540, "▁resurrection": 2541, "▁بھاری": 2542, "▁4:": 2543, "▁فضیلت": 2544, "نسی": 2545, "▁ایوب": 2546, "▁doom": 2547, "▁drowned": 2548, "▁Woe": 2549, "▁decreed": 2550, "▁امر": 2551, "▁ہ": 2552, "کسی": 2553, "▁hurt": 2554, "▁wishes": 2555, "▁قول": 2556, "▁escape": 2557, "▁منزل": 2558, "▁House": 2559, "▁بستیوں": 2560, "▁Jacob": 2561, "▁نوجوان": 2562, "▁باغات": 2563, "▁بارش": 2564, "▁enjoyment": 2565, "▁معبودوں": 2566, "▁کارساز": 2567, "▁فاسق": 2568, "▁files": 2569, "▁چھپ": 2570, "▁عمدہ": 2571, "▁وعدے": 2572, "▁former": 2573, "▁دکھائی": 2574, "Peace": 2575, "▁fine": 2576, "▁چلتا": 2577, "▁angel": 2578, "▁remove": 2579, "▁died": 2580, "▁روکتے": 2581, "▁لوٹائے": 2582, "▁ascribe": 2583, "▁بڑھا": 2584, "▁عزیز": 2585, "▁مخلوق": 2586, "▁beside": 2587, "▁آخری": 2588, "▁پرہیز": 2589, "▁گئیں": 2590, "ہاں": 2591, "▁کمی": 2592, "▁معافی": 2593, "▁community": 2594, "▁everyone": 2595, "▁اظہار": 2596, "▁بیچ": 2597, "▁18": 2598, "▁yours": 2599, "▁breasts": 2600, "▁shown": 2601, "▁طلاق": 2602, "▁کرسکتے": 2603, "▁retribution": 2604, "▁جدا": 2605, "▁favours": 2606, "▁lived": 2607, "▁آجائیں": 2608, "▁الزام": 2609, "▁questions": 2610, "▁7": 2611, "▁بل": 2612, "▁چھپا": 2613, "▁exalted": 2614, "▁گوشت": 2615, "_": 2616, "▁دکھائے": 2617, "▁ضائع": 2618, "▁marry": 2619, "▁ماننے": 2620, "▁Mohammed": 2621, "▁assuredly": 2622, "▁worshipped": 2623, "▁مارے": 2624, "▁چال": 2625, "▁mention": 2626, "▁needy": 2627, "▁vain": 2628, "▁kinds": 2629, "▁observe": 2630, "▁مہینے": 2631, "▁رسوا": 2632, "▁remained": 2633, "▁تیز": 2634, "▁An": 2635, "▁tried": 2636, "▁صلح": 2637, "▁sincere": 2638, "▁deed": 2639, "▁صلہ": 2640, "▁Aaron": 2641, "▁aside": 2642, "▁fighting": 2643, "▁بہشت": 2644, "▁since": 2645, "▁نتیجہ": 2646, "داری": 2647, "▁اندھے": 2648, "▁destruction": 2649, "▁پیدایش": 2650, "کو": 2651, "▁تقسیم": 2652, "▁grievous": 2653, "▁carry": 2654, "▁judgement": 2655, "▁پتھر": 2656, "▁تیمتھیس": 2657, "▁کرلو": 2658, "▁male": 2659, "▁کرلیا": 2660, "▁injustice": 2661, "▁proofs": 2662, "▁اتنی": 2663, "▁عبرت": 2664, "▁خرابی": 2665, "▁security": 2666, "▁نشان": 2667, "▁لگ": 2668, "▁follows": 2669, "▁دولت": 2670, "کر": 2671, "▁نکالے": 2672, "▁learned": 2673, "▁regard": 2674, "▁religious": 2675, "▁سفارش": 2676, "▁believes": 2677, "▁گھڑی": 2678, "▁مناسب": 2679, "▁approach": 2680, "حق": 2681, "▁Rather": 2682, "▁seeing": 2683, "▁نرم": 2684, "▁بہتیر": 2685, "▁مہمان": 2686, "▁enough": 2687, "▁forbid": 2688, "▁پردہ": 2689, "▁پوچھتے": 2690, "نم": 2691, "▁9": 2692, "▁سلامتی": 2693, "▁بیمار": 2694, "▁کھلے": 2695, "▁دے۔": 2696, "▁لگتے": 2697, "▁بیٹھ": 2698, "▁article": 2699, "▁Matthew": 2700, "▁مانگتے": 2701, "▁dwelling": 2702, "▁hardship": 2703, "▁بناؤ": 2704, "▁آنا": 2705, "▁ancient": 2706, "your": 2707, "▁چاہیئے": 2708, "▁پیدائش": 2709, "▁prayed": 2710, "جس": 2711, "▁محمد": 2712, "▁رومیوں": 2713, "▁Best": 2714, "▁plan": 2715, "▁everlasting": 2716, "▁اطمینان": 2717, "▁گرفت": 2718, "▁wilt": 2719, "▁ease": 2720, "▁greatest": 2721, "▁humble": 2722, "▁period": 2723, "▁woe": 2724, "▁experience": 2725, "▁birds": 2726, "▁prophets": 2727, "▁العالمین": 2728, "▁گناه": 2729, "▁believer": 2730, "▁turning": 2731, "▁Because": 2732, "▁perform": 2733, "▁break": 2734, "▁بھاگ": 2735, "▁1:": 2736, "▁sinful": 2737, "▁درد": 2738, "▁advice": 2739, "▁entered": 2740, "▁Right": 2741, "▁ملی": 2742, "▁Whom": 2743, "▁disgrace": 2744, "▁خواہشات": 2745, "▁mean": 2746, "▁جسم": 2747, "▁خوبی": 2748, "▁افراد": 2749, "▁merciful": 2750, "▁thousand": 2751, "▁wage": 2752, "▁weak": 2753, "▁5:": 2754, "▁deaf": 2755, "▁record": 2756, "▁تقوی": 2757, "▁twain": 2758, "▁اشخاص": 2759, "▁درحقیقت": 2760, "▁ہجرت": 2761, "▁bones": 2762, "▁relationship": 2763, "▁hour": 2764, "▁Job": 2765, "▁stars": 2766, "▁فتنہ": 2767, "Did": 2768, "▁lay": 2769, "آپ": 2770, "▁century": 2771, "▁don": 2772, "▁انسانی": 2773, "▁واقعہ": 2774, "▁بتاؤ": 2775, "▁پہنچتی": 2776, "▁ڈالیں": 2777, "▁head": 2778, "▁although": 2779, "▁powerful": 2780, "mighty": 2781, "▁خالق": 2782, "Then": 2783, "▁possible": 2784, "▁نئے": 2785, "▁پڑھنے": 2786, "▁personal": 2787, "▁سین": 2788, "▁مقابلے": 2789, "▁bow": 2790, "▁mischief": 2791, "یوں": 2792, "▁point": 2793, "▁Only": 2794, "▁تھوڑے": 2795, "▁نکالا": 2796, "▁با": 2797, "▁سرپرست": 2798, "▁پڑی": 2799, "▁decision": 2800, "▁rejoice": 2801, "▁early": 2802, "▁شریعت": 2803, "▁shows": 2804, "▁مکاشفہ": 2805, "▁lot": 2806, "▁running": 2807, "▁teaching": 2808, "▁Behold": 2809, "▁کتنے": 2810, "▁Every": 2811, "▁knowing": 2812, "▁limits": 2813, "▁relatives": 2814, "▁animals": 2815, "▁mothers": 2816, "▁پہنچی": 2817, "▁بدترین": 2818, "▁رضا": 2819, "▁۲۶": 2820, "▁دائیں": 2821, "▁والد": 2822, "وت": 2823, "▁Beneficent": 2824, "▁difficult": 2825, "▁forgiving": 2826, "▁protector": 2827, "▁انعام": 2828, "l": 2829, "▁sacred": 2830, "▪": 2831, "▁دس": 2832, "▁Thy": 2833, "▁bestow": 2834, "▁بننے": 2835, "▁موڑ": 2836, "▁subjected": 2837, "Be": 2838, "▁doth": 2839, "▁disobey": 2840, "▁wherever": 2841, "▁چھپاتے": 2842, "زمین": 2843, "▁choose": 2844, "▁Message": 2845, "▁Go": 2846, "▁allow": 2847, "▁راہنمائی": 2848, "▁ناک": 2849, "▁glorify": 2850, "▁بخشے": 2851, "▁6:": 2852, "▁Isaac": 2853, "▁ہٹا": 2854, "▁bondmen": 2855, "اسی": 2856, "Lord": 2857, "▁صورتحال": 2858, "▁determined": 2859, "▁آنکھ": 2860, "▁وعده": 2861, "▁Israelites": 2862, "▁unaware": 2863, "▁انداز": 2864, "▁اذیت": 2865, "▁نظام": 2866, "تر": 2867, "▁Name": 2868, "▁clouds": 2869, "▁بول": 2870, "▁19": 2871, "▁benefits": 2872, "▁move": 2873, "▁seem": 2874, "▁sought": 2875, "▁الف": 2876, "▁fail": 2877, "▁obedient": 2878, "▁فرمانبرداری": 2879, "خود": 2880, "▁successful": 2881, "▁قبر": 2882, "▁Ask": 2883, "▁Give": 2884, "▁ships": 2885, "▁لوقا": 2886, "▁کرلیں": 2887, "▁orphans": 2888, "is": 2889, "▁Son": 2890, "▁perfect": 2891, "▁بچانے": 2892, "▁whenever": 2893, "▁مجرموں": 2894, "کتاب": 2895, "▁committed": 2896, "!”": 2897, "اگر": 2898, "▁calls": 2899, "▁felt": 2900, "▁لگائے": 2901, "▁نیز": 2902, "▁earlier": 2903, "▁رد": 2904, "▁sister": 2905, "▁trees": 2906, "▁Whatever": 2907, "▁کامل": 2908, "▁Life": 2909, "▁places": 2910, "▁کھائیں": 2911, "▁یافتہ": 2912, "▁acts": 2913, "▁attention": 2914, "▁real": 2915, "▁آسمانی": 2916, "▁companion": 2917, "▁evidences": 2918, "▁کردیتا": 2919, "▁distress": 2920, "▁معلومات": 2921, "this": 2922, "▁دکھاتا": 2923, "▁names": 2924, "▁Almighty": 2925, "▁چھ": 2926, "▁معاملات": 2927, "▁Well": 2928, "▁gift": 2929, "▁کائنات": 2930, "▁befall": 2931, "▁liar": 2932, "▁deal": 2933, "▁touched": 2934, "▁بہہ": 2935, "▁چڑھ": 2936, "they": 2937, "ناہ": 2938, "▁ten": 2939, "▁Law": 2940, "▁becomes": 2941, "▁questioned": 2942, "▁Ha": 2943, "▁New": 2944, "▁گفتگو": 2945, "▁آگیا": 2946, "▁بپتسمہ": 2947, "▁حبیب": 2948, "▁hosts": 2949, "▁سنو": 2950, "▁ہائے": 2951, "▁دھیان": 2952, "▁جاہل": 2953, "▁thankful": 2954, "▁دو۔": 2955, "▁helpers": 2956, "▁چ": 2957, "▁weight": 2958, "▁evildoers": 2959, "▁ignorant": 2960, "▁direction": 2961, "▁وسعت": 2962, "▁heavy": 2963, "▁دوڑ": 2964, "▁ملامت": 2965, "▁rich": 2966, "▁تسلی": 2967, "▁پکارو": 2968, "▁fell": 2969, "▁eye": 2970, "▁held": 2971, "▁عبرانیوں": 2972, "▁groups": 2973, "▁inhabitants": 2974, "▁تھی۔": 2975, "▁مقررہ": 2976, "▁D": 2977, "▁نکلے": 2978, "▁looking": 2979, "!’": 2980, "▁پھرتے": 2981, "▁slay": 2982, "▁Like": 2983, "▁got": 2984, "▁دیوار": 2985, "شارہ": 2986, "▁معاملے": 2987, "▁روکا": 2988, "▁سیکھ": 2989, "▁محمدؐ": 2990, "▁مشرکین": 2991, "▁آہستہ": 2992, "▁جہانوں": 2993, "▁comfort": 2994, "▁inherit": 2995, "▁Hearing": 2996, "▁لفظ": 2997, "▁favors": 2998, "▁stayed": 2999, "▁داروں": 3000, "▁نفرت": 3001, "▁gold": 3002, "▁حج": 3003, "▁happiness": 3004, "▁tongue": 3005, "▁ٹھکان": 3006, "▁fears": 3007, "▁مایوس": 3008, "ll": 3009, "▁met": 3010, "▁decided": 3011, "▁lesson": 3012, "▁سنیں": 3013, "▁endure": 3014, "▁further": 3015, "▁throw": 3016, "▁پوچھ": 3017, "▁idolaters": 3018, "ة": 3019, "▁opened": 3020, "▁large": 3021, "▁ریزہ": 3022, "منتظر": 3023, "▁Ye": 3024, "▁watch": 3025, "▁مانا": 3026, "▁کھجور": 3027, "▁anointed": 3028, "▁علاقے": 3029, "▁upright": 3030, "▁ہٹ": 3031, "▁بائیں": 3032, "Have": 3033, "▁توقع": 3034, "▁play": 3035, "▁دانا": 3036, "▁B": 3037, "▁cover": 3038, "▁مانیں": 3039, "▁seed": 3040, "▁ترقی": 3041, "▁پہلو": 3042, "▁expect": 3043, "▁system": 3044, "▁تربیت": 3045, "▁غرق": 3046, "▁بنے": 3047, "C": 3048, "▁firmly": 3049, "▁promises": 3050, "▁پھٹ": 3051, "▁feed": 3052, "▁مصر": 3053, "▁تلا": 3054, "▁انجیل": 3055, "▁thinking": 3056, "▁proper": 3057, "▁زمانہ": 3058, "▁بڑائی": 3059, "▁جوڑے": 3060, "▁clean": 3061, "▁لباس": 3062, "▁communications": 3063, "▁date": 3064, "▁associates": 3065, "▁سکھایا": 3066, "es": 3067, "▁ground": 3068, "▁پاکیز": 3069, "▁تبدیلی": 3070, "▁فولڈر": 3071, "▁زینت": 3072, "*": 3073, "▁enjoin": 3074, "▁leaders": 3075, "▁ناشکری": 3076, "▁needs": 3077, "▁درجہ": 3078, "▁position": 3079, "▁spent": 3080, "▁cursed": 3081, "▁elders": 3082, "▁ابلیس": 3083, "▁Has": 3084, "Are": 3085, "▁leaves": 3086, "▁second": 3087, "▁sheep": 3088, "▁رخ": 3089, "نھ": 3090, "▁جھگڑ": 3091, "▁تاریکی": 3092, "All": 3093, "▁sound": 3094, "▁utter": 3095, "▁wherewith": 3096, "▁درجے": 3097, "بہ": 3098, "▁گرد": 3099, "▁جھگڑت": 3100, "Is": 3101, "▁فرمائیں": 3102, "▁مرنے": 3103, "so": 3104, "▁cities": 3105, "▁failed": 3106, "▁lessons": 3107, "▁کردو": 3108, "▁ہنسی": 3109, "▁اندیشہ": 3110, "▁خیرات": 3111, "جز": 3112, "▁فرشتہ": 3113, "▁patiently": 3114, "▁پاکی": 3115, "تمہارے": 3116, "▁اسلئے": 3117, "▁۳۰": 3118, "▁itself": 3119, "▁دکھایا": 3120, "▁روش": 3121, "▁تسلیم": 3122, "▁Thee": 3123, "▁بھروسا": 3124, "▁غلبہ": 3125, "▁یک": 3126, "▁jinns": 3127, "▁بال": 3128, "▁جھوٹی": 3129, "▁مثالیں": 3130, "▁virtuous": 3131, "وح": 3132, "▁success": 3133, "▁write": 3134, "▁ٹھہرا": 3135, "▁less": 3136, "▁sick": 3137, "▁month": 3138, "▁ruin": 3139, "▁اندازہ": 3140, "▁کردار": 3141, "▁کمائی": 3142, "▁vision": 3143, "▁حوالہ": 3144, "▁various": 3145, "▁خبریں": 3146, "▁دستور": 3147, "▁problems": 3148, "▁خیانت": 3149, "▁۲۹": 3150, "▁پڑھی": 3151, "less": 3152, "▁household": 3153, "▁fought": 3154, "افزائی": 3155, "▁حصے": 3156, "▁chose": 3157, "▁روگردان": 3158, "▁Jerusalem": 3159, "▁S": 3160, "▁Witness": 3161, "▁anger": 3162, "▁ع": 3163, "▁پڑھا": 3164, "▁یہودیوں": 3165, "▁ready": 3166, "▁اسکی": 3167, "▁بحث": 3168, "▁تخلیق": 3169, "▁غرض": 3170, "▁فٹ": 3171, "▁piety": 3172, "▁آیت": 3173, "▁suddenly": 3174, "▁17": 3175, "▁perceive": 3176, "▁ذاتی": 3177, "▁divine": 3178, "▁file": 3179, "▁پچھلے": 3180, "را": 3181, "▁برداشت": 3182, "▁”?": 3183, "▁Peace": 3184, "▁حرکت": 3185, "▁maintain": 3186, "▁Among": 3187, "▁پڑیں": 3188, "▁Torah": 3189, "▁overcome": 3190, "▁۲۷": 3191, "▁appear": 3192, "▁سند": 3193, "▁کانوں": 3194, "▁dwellers": 3195, "▁married": 3196, "▁meetings": 3197, "▁جاؤں": 3198, "▁جڑ": 3199, "▁محنت": 3200, "ve": 3201, "▁Could": 3202, "▁شدید": 3203, "▁calling": 3204, "▁members": 3205, "▁جتنا": 3206, "▁spoke": 3207, "▁examples": 3208, "▁needed": 3209, "▁protection": 3210, "▁اندھا": 3211, "▁Were": 3212, "▁belie": 3213, "▁information": 3214, "▁اجلاس": 3215, "▁بیزار": 3216, "▁مذہبی": 3217, "▁مشرق": 3218, ")]": 3219, "د": 3220, "▁birth": 3221, "▁produced": 3222, "▁آباد": 3223, "▁شہادت": 3224, "▁فائل": 3225, "▁فریاد": 3226, "▁پہنچنے": 3227, "▁باہم": 3228, "اسے": 3229, "▁six": 3230, "▁۳۱": 3231, "نکی": 3232, "▁Oneness": 3233, "▁مانگتا": 3234, "▁تا": 3235, "▁سمجھا": 3236, "▁پوچھو": 3237, "▁اٹھایا": 3238, "▁یونہی": 3239, "رسول": 3240, "▁بادل": 3241, "▁بیٹیاں": 3242, "▁رحیم": 3243, "▁کرلے": 3244, "▁alive": 3245, "▁purify": 3246, "▁ملتا": 3247, "▁therewith": 3248, "▁وصیت": 3249, "▁While": 3250, "▁oath": 3251, "▁voice": 3252, "▁likely": 3253, "▁warnings": 3254, "▁form": 3255, "▁goes": 3256, "▁pardon": 3257, "▁بتوں": 3258, "▁میوے": 3259, "!'": 3260, "▁Isaiah": 3261, "▁بالا": 3262, "▁بنیاد": 3263, "▁عالمی": 3264, "▁testify": 3265, "▁خط": 3266, "▁سلوک": 3267, "▁مغرب": 3268, "▁بہرحال": 3269, "▁claim": 3270, "▁explain": 3271, "▁Able": 3272, "Prophet": 3273, "against": 3274, "لٹے": 3275, "▁برپا": 3276, "▁goodness": 3277, "▁اتصال": 3278, "▁طے": 3279, "/": 3280, "▁resurrected": 3281, "▁lying": 3282, "▁covered": 3283, "▁بیویاں": 3284, "▁boiling": 3285, "▁working": 3286, "▁اعتبار": 3287, "▁ساتھیوں": 3288, "▁attain": 3289, "▁Prophets": 3290, "▁righteously": 3291, "ى": 3292, "▁profit": 3293, "▁لگاتے": 3294, "▁awaits": 3295, "▁likeness": 3296, "▁لڑکے": 3297, "▁cometh": 3298, "▁connection": 3299, "▁دھوکہ": 3300, "▁قبض": 3301, "▁forefathers": 3302, "▁سنائی": 3303, "▁heads": 3304, "▁گزرے": 3305, "▁ابراہیمؑ": 3306, "ئی": 3307, "انہیں": 3308, "▁Mosque": 3309, "▁سمجھو": 3310, "▁گنتی": 3311, "▁Shall": 3312, "▁ڈرا": 3313, "h": 3314, "▁laid": 3315, "▁معین": 3316, "▁High": 3317, "▁grief": 3318, "▁females": 3319, "un": 3320, "▁parts": 3321, "▁stones": 3322, "▁بندہ": 3323, "▁پڑتا": 3324, "▁Evil": 3325, "▁situation": 3326, "▁اگل": 3327, "▁ملائکہ": 3328, "▁carried": 3329, "▁force": 3330, "▁lose": 3331, "▁white": 3332, "His": 3333, "▁persons": 3334, "▁بی": 3335, "▁غصہ": 3336, "▁World": 3337, "▁بدکاری": 3338, "▁متوجہ": 3339, "▁commands": 3340, "There": 3341, "▁prevent": 3342, "▁dominion": 3343, "▁لاتا": 3344, "▁من": 3345, "In": 3346, "عمل": 3347, "▁لوٹا": 3348, "▁hundred": 3349, "▁Consider": 3350, "▁obedience": 3351, "▁انتخاب": 3352, "who": 3353, "▁invent": 3354, "▁sides": 3355, "▁dawn": 3356, "▁increased": 3357, "▁strike": 3358, "▁کشادہ": 3359, "▁بخل": 3360, "▁نکالیں": 3361, "االله": 3362, "▁یتیم": 3363, "Shall": 3364, "کوئی": 3365, "▁Sacred": 3366, "▁Today": 3367, "▁مستقبل": 3368, "▁ancients": 3369, "▁descendants": 3370, "▁filled": 3371, "▁اہمیت": 3372, "▁جاؤ۔": 3373, "▁مہیا": 3374, "▁چلی": 3375, "▁respond": 3376, "ic": 3377, "▁رنج": 3378, "▁Messiah": 3379, "▁Although": 3380, "▁rightly": 3381, "▁ڈالو": 3382, "▁serving": 3383, "دنیوی": 3384, "▁short": 3385, "▁اسحاق": 3386, "▁درخواست": 3387, "▁مند": 3388, "▁Proverbs": 3389, "▁prison": 3390, "▁treat": 3391, "▁خوشنودی": 3392, "▁تنگی": 3393, "▁مسلمانو": 3394, "▁asking": 3395, "▁گل": 3396, "▁struck": 3397, "▁اصول": 3398, "▁sake": 3399, "▁ناپسند": 3400, "▁disease": 3401, "▁heavenly": 3402, "▁public": 3403, "▁run": 3404, "▁اسرائیلی": 3405, "How": 3406, "▁almost": 3407, "▁آخرکار": 3408, "▁بدی": 3409, "▁battle": 3410, "▁offering": 3411, "▁recognize": 3412, "▁1,": 3413, "▁Revelation": 3414, "▁آراستہ": 3415, "▁خسارہ": 3416, "▁دیجیئے": 3417, "▁رستہ": 3418, "▁شعیب": 3419, "▁پہلا": 3420, "▁ذبح": 3421, "▁قرض": 3422, "▁بہ": 3423, "▁Ayat": 3424, "▁غائب": 3425, "▁Gracious": 3426, "▁worthy": 3427, "▁شہروں": 3428, "▁قیام": 3429, "▁N": 3430, "Bring": 3431, "▁prescribed": 3432, "▁بجا": 3433, "▁join": 3434, "▁add": 3435, "▁differ": 3436, "▁affliction": 3437, "▁earn": 3438, "▁proclaim": 3439, "▁شکل": 3440, "▁پھیلا": 3441, "▁تعجب": 3442, "▁تورات": 3443, "▁مخلوقات": 3444, "▁ملتی": 3445, "▁Where": 3446, "▁slain": 3447, "▁بہکا": 3448, "ق": 3449, "▁Spirit": 3450, "▁infidels": 3451, "▁settled": 3452, "▁reading": 3453, "men": 3454, "▁company": 3455, "▁عربی": 3456, "▁اترا": 3457, "▁alike": 3458, "▁fill": 3459, "▁مشکلات": 3460, "▁غفلت": 3461, "▁چرچ": 3462, "No": 3463, "▁named": 3464, "▁prove": 3465, "▁نکلنے": 3466, "▁واقعات": 3467, "▁changed": 3468, "▁داری": 3469, "▁مؤمن": 3470, "▁کنارے": 3471, "▁green": 3472, "▁parable": 3473, "▁winds": 3474, "▁عجیب": 3475, "▁چپکے": 3476, "▁(*": 3477, "▁build": 3478, "▁انگور": 3479, "▁wont": 3480, "▁طریقوں": 3481, "▁country": 3482, "▁started": 3483, "▁testimony": 3484, "▁preach": 3485, "سناتے": 3486, "▁Whosoever": 3487, "▁disobedient": 3488, "▁happened": 3489, "▁hereafter": 3490, "▁اقتدار": 3491, "▁punished": 3492, "▁ممسوح": 3493, "▁حوالے": 3494, "▁allowed": 3495, "▁abundance": 3496, "▁driven": 3497, "▁زند": 3498, "▁springs": 3499, "▁beautiful": 3500, "▁ٹھہر": 3501, "▁recall": 3502, "▁یتیموں": 3503, "▁feared": 3504, "▁بڑھنے": 3505, "صل": 3506, "رہے": 3507, "▁honor": 3508, "▁پلٹا": 3509, "▁Unseen": 3510, "▁چھوٹے": 3511, "▁riches": 3512, "▁task": 3513, "▁عوض": 3514, "▁چنانچہ": 3515, "▁seize": 3516, "▁worst": 3517, "▁Judgement": 3518, "▁attitude": 3519, "▁goodly": 3520, "▁بشر": 3521, "▁afflicted": 3522, "▁private": 3523, "▁سکول": 3524, "▁explained": 3525, "▁Each": 3526, "▁Moosa": 3527, "▁ahead": 3528, "▁palm": 3529, "▁اقرار": 3530, "▁divided": 3531, "▁moved": 3532, "▁بزرگوں": 3533, "▁سفید": 3534, "▁جوش": 3535, "▁مائل": 3536, "▁وبال": 3537, "▁removed": 3538, "▁حمایت": 3539, "▁سونے": 3540, "▁گھاٹ": 3541, "▁Reminder": 3542, "▁devotion": 3543, "▁half": 3544, "▁بھیڑ": 3545, "▁کنارہ": 3546, "▁price": 3547, "These": 3548, "▁True": 3549, "▁پرورش": 3550, "▁Arabic": 3551, "▁زندگانی": 3552, "▁حیائی": 3553, "▁نیا": 3554, "ers": 3555, "▁provides": 3556, "▁bounties": 3557, "▁25": 3558, "Forgiving": 3559, "▁unjustly": 3560, "▁پوچھیں": 3561, "▁کرسکتا": 3562, "like": 3563, "evil": 3564, "ther": 3565, "▁actions": 3566, "▁confirming": 3567, "▁dwellings": 3568, "▁جارہی": 3569, "▁Glory": 3570, "▁deities": 3571, "▁آتش": 3572, "▁علي": 3573, "▁Know": 3574, "▁fixed": 3575, "▁proved": 3576, "▁sleep": 3577, "▁بر": 3578, "▁Mount": 3579, "▁None": 3580, "▁24": 3581, "▁born": 3582, "▁possessed": 3583, "▁refused": 3584, "▁قسموں": 3585, "▁realize": 3586, "▁برعکس": 3587, "▁ہوسکتا": 3588, "▁especially": 3589, "▁health": 3590, "▁مجبور": 3591, "espite": 3592, "▁سبق": 3593, "▁صحائف": 3594, "▁effect": 3595, "To": 3596, "▁recorded": 3597, "▁تجارت": 3598, "▁honour": 3599, "▁low": 3600, "▁thoughts": 3601, "▁سمجھے": 3602, "▁therefrom": 3603, "▁عیب": 3604, "▁مثل": 3605, "▁چھوڑا": 3606, "▁ڈالتے": 3607, "▁heedless": 3608, "▁رسوائی": 3609, "▁declare": 3610, "▁چلتی": 3611, "▁آسانی": 3612, ":)": 3613, "▁بھیجتے": 3614, "▁دیں۔": 3615, "▁کہتی": 3616, "▁ہمت": 3617, "▁penalty": 3618, "▁کج": 3619, "▁پریشان": 3620, "▁families": 3621, "▁جلا": 3622, "▁پابندی": 3623, "▁sit": 3624, "▁نصیب": 3625, "▁گروہوں": 3626, "▁including": 3627, "▁لازم": 3628, "ایسا": 3629, "▁لکھی": 3630, "یاں": 3631, "▁nearer": 3632, "▁بلایا": 3633, "▁دشمنوں": 3634, "▁baptized": 3635, "▁سارا": 3636, "▁V": 3637, "▁گرم": 3638, "نکے": 3639, "▁Fir": 3640, "▁condition": 3641, "▁joined": 3642, "▁enjoined": 3643, "ness": 3644, "▁THE": 3645, "▁grain": 3646, "▁غار": 3647, "So": 3648, "▁pairs": 3649, "▁possessions": 3650, "▁special": 3651, "▁آرزو": 3652, "▁نیو": 3653, "▁Worlds": 3654, "▁plot": 3655, "▁appoint": 3656, "مال": 3657, "نی": 3658, "▁Since": 3659, "▁قدیم": 3660, "▁befalls": 3661, "▁wrongdoing": 3662, "▁حکمرانی": 3663, "▁regular": 3664, "▁بھل": 3665, "▁beings": 3666, "▁بہرے": 3667, "▁غرور": 3668, "▁aid": 3669, "▁noble": 3670, "▁چھا": 3671, "▁نیکو": 3672, "▁تجاوز": 3673, "▁divorce": 3674, "▁بدکار": 3675, "▁Timothy": 3676, "▁midst": 3677, "▁wished": 3678, "ف": 3679, "▁مسائل": 3680, "Will": 3681, "▁unable": 3682, "▁طالب": 3683, "▁pride": 3684, "▁بھی۔": 3685, "▁Take": 3686, "▁devil": 3687, "▁برتر": 3688, "▁کپڑے": 3689, "▁rebellious": 3690, "▁whoso": 3691, "▁built": 3692, "▁convey": 3693, "you": 3694, "▁پچھل": 3695, "▁decide": 3696, "▁راز": 3697, "▁perish": 3698, "▁stop": 3699, "▁جنتوں": 3700, "▁پیشینگوئی": 3701, "▁meaning": 3702, "▁states": 3703, "▁قصور": 3704, "بہت": 3705, "▁30": 3706, "▁قیمت": 3707, "▁issue": 3708, "▁Soon": 3709, "▁afflict": 3710, "▁F": 3711, "▁burning": 3712, "fearing": 3713, "vouchsafed": 3714, "▁desist": 3715, "▁invented": 3716, "▁leads": 3717, "▁مردہ": 3718, "▁وطن": 3719, "▁calf": 3720, "▁feelings": 3721, "▁abundant": 3722, "▁حر": 3723, "▁حکیم": 3724, "▁رو": 3725, "▁وسیع": 3726, "▁prosper": 3727, "▁چھوڑے": 3728, "▁deep": 3729, "▁بلاشبہ": 3730, "پہلے": 3731, "▁mountain": 3732, "▁rewarded": 3733, "▁silver": 3734, "▁تعبیر": 3735, "▁wine": 3736, "▁متاثر": 3737, "Knowing": 3738, "▁longer": 3739, "▁school": 3740, "▁جھک": 3741, "▁حل": 3742, "▁عدل": 3743, "Yes": 3744, "▁احاطہ": 3745, "▁ایس": 3746, "▁exchange": 3747, "▁ایماندار": 3748, "▁شفقت": 3749, "remember": 3750, "▁five": 3751, "▁intercession": 3752, "▁بتائے": 3753, "▁زدہ": 3754, "▁پشت": 3755, "▁Gehenna": 3756, "▁پختہ": 3757, "▁effort": 3758, "▁gates": 3759, "▁بیت": 3760, "▁جنوں": 3761, "▁خانہ": 3762, "▁ابرہام": 3763, "Go": 3764, "▁Straight": 3765, "▁exercise": 3766, "▁interest": 3767, "▁غنیمت": 3768, "▁ناپاک": 3769, "▁نر": 3770, "▁چھوٹی": 3771, "proofs": 3772, "▁bounds": 3773, "▁twice": 3774, "▁دباؤ": 3775, "▁کرے۔": 3776, "▁گائے": 3777, "▁folder": 3778, "▁safe": 3779, "▁ناکام": 3780, "▁strengthen": 3781, "▁روم": 3782, "▁چشمے": 3783, "▁lasting": 3784, "▁رہوں": 3785, "▁میل": 3786, "▁خوراک": 3787, "▁لڑتے": 3788, "▁پکڑا": 3789, "▁humility": 3790, "▁آس": 3791, "بازگشت": 3792, "▁روزہ": 3793, "▁May": 3794, "▁creates": 3795, "▁forgot": 3796, "▁using": 3797, "▁چلنا": 3798, "▁۳۳": 3799, "▁reply": 3800, "▁towns": 3801, "▁مٹا": 3802, "▁راتوں": 3803, "▁مخصوص": 3804, "▁willing": 3805, "▁نو": 3806, "▁Clear": 3807, "▁Look": 3808, "بے": 3809, "▁بگاڑ": 3810, "▁روکے": 3811, "▁نیٹ": 3812, "those": 3813, "▁third": 3814, "▁wide": 3815, "▁وضاحت": 3816, "▁Compassionate": 3817, "▁responsible": 3818, "▁un": 3819, "▁فوج": 3820, "▁despair": 3821, "▁ignorance": 3822, "▁ویسا": 3823, "will": 3824, "▁Egypt": 3825, "▁throne": 3826, "▁دلچسپی": 3827, "▁کثرت": 3828, "▁striving": 3829, "▁پہنچانے": 3830, "Pharaoh": 3831, "▁P": 3832, "▁visit": 3833, "▁wherefore": 3834, "▁حاکم": 3835, "▁common": 3836, "▁اجرت": 3837, "▁لگتی": 3838, "▁seal": 3839, "▁tongues": 3840, "▁waste": 3841, "▁ثبوت": 3842, "▁جوڑا": 3843, "▁reminded": 3844, "▁تاریخ": 3845, "یاد": 3846, "▁speaking": 3847, "▁محل": 3848, "▁عنایت": 3849, "people": 3850, "▁قانون": 3851, "▁disobeyed": 3852, "▁بنو": 3853, "▁سکون": 3854, "▁ورک": 3855, "▁Just": 3856, "▁happen": 3857, "▁بیشتر": 3858, "▁دکھانے": 3859, "چیت": 3860, "▁پہل": 3861, "▁پیشوا": 3862, "▁chiefs": 3863, "▁encounter": 3864, "▁hatred": 3865, "Abraham": 3866, "مگر": 3867, "▁army": 3868, "▁کتابیں": 3869, "▁ہلکا": 3870, "▁Corinthians": 3871, "▁threw": 3872, "▁blown": 3873, "▁i": 3874, "▁Believe": 3875, "▁Devil": 3876, "▁طاقتور": 3877, "▁staff": 3878, "▁آفت": 3879, "▁دراز": 3880, "tar": 3881, "▁Acts": 3882, "▁مسخر": 3883, "▁double": 3884, "▁submitted": 3885, "▁چلیں": 3886, "▁laws": 3887, "▁worshipping": 3888, "▁مشورہ": 3889, "تہائی": 3890, "▁alms": 3891, "▁transgress": 3892, "▁مزے": 3893, "▁deity": 3894, "▁بناتا": 3895, "▁بچنے": 3896, "▁حملہ": 3897, "▁خفیہ": 3898, "▁افترا": 3899, "▁خزانے": 3900, "▁round": 3901, "▁worse": 3902, "▁wretched": 3903, "▁بہتی": 3904, "▁accord": 3905, "▁bound": 3906, "▁اعلی": 3907, "▁جوان": 3908, "▁دوستوں": 3909, "▁انتظام": 3910, "▁گرفتار": 3911, "▁spoken": 3912, "▁triumph": 3913, "▁آپکو": 3914, "c": 3915, "لک": 3916, "▁Gospel": 3917, "▁اتر": 3918, "وہی": 3919, "ایسے": 3920, "▁Romans": 3921, "▁دم": 3922, "▁Might": 3923, "▁nigh": 3924, "▁احساس": 3925, "▁اونٹ": 3926, "▁ترین": 3927, "Your": 3928, "▁R": 3929, "▁associated": 3930, "▁paradise": 3931, "▁اکثریت": 3932, "▁Shaitan": 3933, "▁assigned": 3934, "▁extreme": 3935, "▁wonder": 3936, "▁لڑکی": 3937, "مند": 3938, "▁Luke": 3939, "▁دعوی": 3940, "ٹھا": 3941, "▁helps": 3942, "▁22": 3943, "▁Everlasting": 3944, "▁غمگین": 3945, "▁footsteps": 3946, "▁rise": 3947, "Wise": 3948, "▁rely": 3949, "▁گھڑ": 3950, "unto": 3951, "▁Should": 3952, "▁efforts": 3953, "▁Never": 3954, "▁معیار": 3955, "▁موافق": 3956, "بخوبی": 3957, "▁Make": 3958, "▁unlawful": 3959, "▁خدائی": 3960, "▁خداوند": 3961, "▁ره": 3962, "▁شبہ": 3963, "▁ڈرات": 3964, "▁Unbelievers": 3965, "▁دیکھی": 3966, "▁گرا": 3967, "▁Guardian": 3968, "▁Man": 3969, "▁sexual": 3970, "سکا": 3971, "▁devils": 3972, "▁بھٹک": 3973, "▁کھاتا": 3974, "▁گو": 3975, "▁display": 3976, "▁interpretation": 3977, "▁بھیجتا": 3978, "▁تہ": 3979, "▁عظمت": 3980, "▁ٹال": 3981, "▁یروشلیم": 3982, "Verily": 3983, "▁sorrow": 3984, "▁روکنے": 3985, "▁رفیق": 3986, "▁روئے": 3987, "▁چونکہ": 3988, "▁final": 3989, "▁separate": 3990, "▁ship": 3991, "▁اونچے": 3992, "As": 3993, "▁wombs": 3994, "بھائیوں": 3995, "▁Koran": 3996, "▁اسکا": 3997, "▁صور": 3998, "▁وجود": 3999, "▁کردیتے": 4000, "▁tribe": 4001, "▁بھڑکت": 4002, "▁رکھتی": 4003, "▁simply": 4004, "▁دائمی": 4005, "دوزخ": 4006, "▁stated": 4007, "▁streams": 4008, "▁پانچ": 4009, "▁ہونگے": 4010, "نوٹ": 4011, "▁paid": 4012, "▁preferred": 4013, "▁زکریا": 4014, "▁یقینی": 4015, "▁front": 4016, "hearing": 4017, "▁barrier": 4018, "▁مادہ": 4019, "▁متقی": 4020, "▁fate": 4021, "▁پہنچتا": 4022, "▁۳۲": 4023, "▁مرے": 4024, "▁obeyed": 4025, "▁violence": 4026, "ever": 4027, "لاتا": 4028, "▁boy": 4029, "▁mouths": 4030, "▁ranks": 4031, "▁careful": 4032, "کار": 4033, "▁worshipers": 4034, "▁وغیرہ": 4035, "▁line": 4036, "▁loved": 4037, "▁recompensed": 4038, "▁گاہ": 4039, "g": 4040, "▁forgives": 4041, "▁qualities": 4042, "▁محروم": 4043, "▁ڈالنے": 4044, "▁principles": 4045, "▁succeed": 4046, "▁ability": 4047, "▁brethren": 4048, "▁building": 4049, "▁entire": 4050, "▁نمبر": 4051, "▁sending": 4052, "▁کہئے": 4053, "ائے": 4054, "▁مومنو": 4055, "But": 4056, "▁لگایا": 4057, "▁count": 4058, "▁involved": 4059, "▁messages": 4060, "▁worked": 4061, "▁بجلی": 4062, "▁عقلمند": 4063, "them": 4064, "▁Perhaps": 4065, "▁completely": 4066, "▁doers": 4067, "▁graves": 4068, "▁بشرطیکہ": 4069, "▁نقل": 4070, "▁مراد": 4071, "Ad": 4072, "▁several": 4073, "▁پرندوں": 4074, "▁ترجمہ": 4075, "▁رس": 4076, "▁سمت": 4077, "▁attribute": 4078, "▁Praise": 4079, "▁humiliating": 4080, "▁تفصیل": 4081, "▁خسار": 4082, "▁secretly": 4083, "▁اعتماد": 4084, "ناک": 4085, "▁based": 4086, "▁دیجیے": 4087, "▁فرزند": 4088, "▁لطف": 4089, "▁منافقوں": 4090, "▁پکارے": 4091, "▁کمزوری": 4092, "▁temple": 4093, "▁لیا۔": 4094, "Come": 4095, "▁descend": 4096, "▁partner": 4097, "▁peoples": 4098, "▁رحمن": 4099, "▁openly": 4100, "▁رہو۔": 4101, "▁مکہ": 4102, "▁,": 4103, "▁nature": 4104, "▁غریب": 4105, "either": 4106, "▁Nuh": 4107, "▁مانگو": 4108, "▁چن": 4109, "▁Ever": 4110, "▁setting": 4111, "▁بنانا": 4112, "▁حامل": 4113, "▁دفعہ": 4114, "▁ڈاکٹر": 4115, "▁Before": 4116, "▁T": 4117, "▁start": 4118, "▁تاکید": 4119, "▁لڑو": 4120, "▁گز": 4121, "By": 4122, "T": 4123, "▁charge": 4124, "▁individuals": 4125, "▁E": 4126, "▁cease": 4127, "▁chapter": 4128, "▁miracles": 4129, "▁offered": 4130, "▁بستیاں": 4131, "▁مستحق": 4132, "▁نیکوکار": 4133, "▁differed": 4134, "▁master": 4135, "▁سجد": 4136, "▁مد": 4137, "▁پھیرے": 4138, "▁calamity": 4139, "▁ڈرائے": 4140, "▁exists": 4141, "▁subject": 4142, "▁بنادیا": 4143, "▁دکھ": 4144, "▁ہوچکا": 4145, "▁Fear": 4146, "▁asunder": 4147, "▁strengthened": 4148, "▁حجت": 4149, "▁نکالتے": 4150, "▁چین": 4151, "able": 4152, "also": 4153, "▁shade": 4154, "▁مطمئن": 4155, "▁garments": 4156, "▁بچو": 4157, "▁چشمہ": 4158, "▁hours": 4159, "▁مبنی": 4160, "▁چوری": 4161, "▁deceive": 4162, "ط": 4163, "▁serious": 4164, "▁رہتی": 4165, "▁محتاج": 4166, "▁12:": 4167, "▁spring": 4168, "▁جائے۔": 4169, "Surely": 4170, "▁21": 4171, "▁تنظیم": 4172, "▁ہدایات": 4173, "us": 4174, "▁ear": 4175, "▁inmates": 4176, "▁پہنچایا": 4177, "his": 4178, "▁served": 4179, "تمہیں": 4180, "دین": 4181, "▁behalf": 4182, "▁dream": 4183, "▁بہا": 4184, "▁جانیں": 4185, "▁گیت": 4186, "▁attack": 4187, "▁travel": 4188, "▁احترام": 4189, "▁actually": 4190, "▁wonderful": 4191, "That": 4192, "کفار": 4193, "▁گم": 4194, "polytheists": 4195, "▁minds": 4196, "▁valley": 4197, "▁حیات": 4198, "▁نکلتا": 4199, "▁Whe": 4200, "▁averse": 4201, "▁بخشتا": 4202, "▁بنیادی": 4203, "▁mortal": 4204, "▁تجربہ": 4205, "▁دوڑت": 4206, "▁طوفان": 4207, "▁invite": 4208, "▁parties": 4209, "▁submission": 4210, "خاص": 4211, "لا": 4212, "▁bellies": 4213, "▁beware": 4214, "▁underneath": 4215, "▁necks": 4216, "▁سنی": 4217, "▁fearing": 4218, "▁شب": 4219, "▁ناپ": 4220, "o": 4221, "▁rule": 4222, "▁بابرکت": 4223, "▁سود": 4224, "▁unbelief": 4225, "▁برقرار": 4226, "▁شیاطین": 4227, "حضرت": 4228, "▁barren": 4229, "▁circumstances": 4230, "▁flowing": 4231, "▁material": 4232, "▁...": 4233, "▁fulfil": 4234, "▁تھام": 4235, "▁میعاد": 4236, "▁gate": 4237, "▁swift": 4238, "▁دلیلیں": 4239, "▁spiritually": 4240, "▁تصویریں": 4241, "▁تعمیر": 4242, "▁Books": 4243, "▁اعلان": 4244, "▁جانشین": 4245, "▁gracious": 4246, "▁scattered": 4247, "▁strayed": 4248, "▁imitate": 4249, "▁اکٹھا": 4250, "▁مارو": 4251, "▁نوکر": 4252, "▁pledge": 4253, "▁باندھے": 4254, "but": 4255, "▁supreme": 4256, "▁رسال": 4257, "یت": 4258, "▁sovereignty": 4259, "▁عذر": 4260, "▁defend": 4261, "▁۳۴": 4262, "▁existence": 4263, "▁source": 4264, "▁تبدیل": 4265, "▁argue": 4266, "▁یوح": 4267, "▁fault": 4268, "▁برسایا": 4269, "▁ف": 4270, "▁drop": 4271, "▁دھوکے": 4272, "▁دی۔": 4273, "Satan": 4274, "کوع": 4275, "▁Until": 4276, "▁added": 4277, "▁delight": 4278, "▁explains": 4279, "▁باندھ": 4280, "▁جھٹلائیں": 4281, "▁لشکروں": 4282, "Jesus": 4283, "▁آفتاب": 4284, "p": 4285, "▁ordered": 4286, "▁افسیو": 4287, "Had": 4288, "ض": 4289, "حکم": 4290, "▁disbelieving": 4291, "▁observed": 4292, "▁گردش": 4293, "▁evident": 4294, "▁حسن": 4295, "▁دبا": 4296, "▁توفیق": 4297, "▁سمجھتا": 4298, "▁پہنچائے": 4299, "▁Prayer": 4300, "▁flee": 4301, "▁سایہ": 4302, "▁continued": 4303, "▁reaches": 4304, "▁بطور": 4305, "▁ممالک": 4306, "il": 4307, "▁سیاہ": 4308, "▁صحت": 4309, "▁letter": 4310, "▁الہ": 4311, "▁اڑاتے": 4312, "▁قرابت": 4313, "se": 4314, "▁ہڈیاں": 4315, "other": 4316, "▁bearer": 4317, "▁bearing": 4318, "▁حیران": 4319, "▁دانی": 4320, "▁presented": 4321, ";-": 4322, "▁closer": 4323, "▁field": 4324, "▁ایذا": 4325, "کھ": 4326, "▁practice": 4327, "▁شائع": 4328, "▁value": 4329, "▁بلائے": 4330, "▁Footnote": 4331, "▁mutual": 4332, "▁pagans": 4333, "▁problem": 4334, "▁stone": 4335, "▁concern": 4336, "▁events": 4337, "▁Still": 4338, "▁پروگرام": 4339, "▁چراغ": 4340, "▁list": 4341, "▁fabricate": 4342, "▁مسکینوں": 4343, "ار": 4344, "▁Shu": 4345, "▁mere": 4346, "▁praises": 4347, "▁مالوں": 4348, "he": 4349, "سراسر": 4350, "▁rebellion": 4351, "▁تحریک": 4352, "▁صحیفوں": 4353, "▁شکریہ": 4354, "▁forgotten": 4355, "▁terror": 4356, "▁ہوجاتا": 4357, "▁نرمی": 4358, "▁United": 4359, "▁couches": 4360, "▁deniers": 4361, "▁keeping": 4362, "▁s": 4363, "▁ملتے": 4364, "▁physical": 4365, "▁پڑتے": 4366, "▁گئے۔": 4367, "▁۰۰۰": 4368, "▁ہوجاتے": 4369, "▁guardians": 4370, "▁رسالت": 4371, "▁fallen": 4372, "▁godfearing": 4373, "▁آزادی": 4374, "اداش": 4375, "▁Whenever": 4376, "▁ابن": 4377, "▁جھکا": 4378, "▁شفا": 4379, "▁چاندی": 4380, "▁creature": 4381, "▁loyal": 4382, "▁Pictures": 4383, "▁persecution": 4384, "▁پھیل": 4385, "▁inheritance": 4386, "▁شر": 4387, "▁mine": 4388, "▁نیکوکاروں": 4389, "▁expend": 4390, "▁کرلی": 4391, "▁کھل": 4392, "▁Enter": 4393, "▁فریق": 4394, "اپنا": 4395, "▁Penalty": 4396, "▁Upon": 4397, "▁responsibility": 4398, "▁Good": 4399, "گنا": 4400, "▁split": 4401, "▁نکلیں": 4402, "▁cloud": 4403, "▁cautious": 4404, "▁بخشا": 4405, "▁burdens": 4406, "▁ماہر": 4407, "▁criminals": 4408, "▁moving": 4409, "▁Iblis": 4410, "▁Yusuf": 4411, "▁ڈالی": 4412, "only": 4413, "▁occurred": 4414, "▁پکڑے": 4415, "▁lower": 4416, "▁virtue": 4417, "▁اسباب": 4418, "▁رائے": 4419, "آخرت": 4420, "▁attend": 4421, "▁̧": 4422, "▁خداؤں": 4423, "▁مدین": 4424, "▁فدیہ": 4425, "▁ago": 4426, "▁door": 4427, "▁صف": 4428, "▁عرصہ": 4429, "▁desired": 4430, "▁آکر": 4431, "▁پول": 4432, "▁چاہتی": 4433, "▁James": 4434, "▁disputed": 4435, "▁host": 4436, "▁worshippers": 4437, "▁باہمی": 4438, "even": 4439, "▁Instead": 4440, "▁merely": 4441, "▁مویشی": 4442, "▁نبوت": 4443, "▁commandment": 4444, "▁دست": 4445, "قت": 4446, "▁suffered": 4447, "ance": 4448, "▁برسات": 4449, "▁پیار": 4450, "▁fulfill": 4451, "▁treasures": 4452, "▁لڑکا": 4453, "▁نتائج": 4454, "▁mislead": 4455, "▁prophecy": 4456, "▁گن": 4457, "لے": 4458, "▁adversity": 4459, "▁امتحان": 4460, "▁جائز": 4461, "▁پھلوں": 4462, "اه": 4463, "نظر": 4464, "▁Grace": 4465, "▁Greek": 4466, "▁action": 4467, "▁misfortune": 4468, "▁مقدار": 4469, "Taste": 4470, "▁heat": 4471, "▁بھری": 4472, "▁بھوک": 4473, "▁عدت": 4474, "▁عیش": 4475, "▁نوحؑ": 4476, "place": 4477, "sufficient": 4478, "▁husbands": 4479, "▁transgression": 4480, "▁عرص": 4481, "▁چکھائیں": 4482, "▁ہوگی۔": 4483, "بات": 4484, "▁Worship": 4485, "▁d": 4486, "▁aforetime": 4487, "▁سمجھیں": 4488, "▁پیروکار": 4489, "Enter": 4490, "▁ہیکل": 4491, "doing": 4492, "▁dry": 4493, "▁بکس": 4494, "▁جانو": 4495, "▁سبز": 4496, "▁سزاوار": 4497, "▁لگو": 4498, "▁Command": 4499, "▁بلندی": 4500, "▁ذہن": 4501, "▁مطالع": 4502, "D": 4503, "ست": 4504, "▁Wherefore": 4505, "▁rank": 4506, "▁مؤ": 4507, "▁Watchtower": 4508, "▁history": 4509, "▁walking": 4510, "▁ٹھہراتے": 4511, "▁چھپائے": 4512, "▁Taurat": 4513, "▁hire": 4514, "▁prevented": 4515, "▁telling": 4516, "▁4.": 4517, "▁lord": 4518, "▁consequences": 4519, "▁ناشکرا": 4520, "▁black": 4521, "▁orphan": 4522, "▁resting": 4523, "▁utterly": 4524, "▁مخالف": 4525, "▁نوجوانوں": 4526, "▁کھینچ": 4527, "ڑے": 4528, "▁quit": 4529, "▁ضروریات": 4530, "▁کردیئے": 4531, "▁decisions": 4532, "▁انتقام": 4533, "▁فردوس": 4534, "▁10:": 4535, "▁hears": 4536, "▁سورت": 4537, "▁شرف": 4538, "▁شکرگزار": 4539, "▁یکساں": 4540, "کفر": 4541, "▁aright": 4542, "▁ابراھیم": 4543, "▁program": 4544, "▁خلقت": 4545, "▁عمارت": 4546, "▁مضبوطی": 4547, "الت": 4548, "▁صدقہ": 4549, "Where": 4550, "▁honourable": 4551, "▁pain": 4552, "▁مشورت": 4553, "▁پیرو": 4554, "▁road": 4555, "▁بولتے": 4556, "▁وفاداری": 4557, "▁2.": 4558, "▁affect": 4559, "▁نعمتیں": 4560, "▁stronger": 4561, "▁visited": 4562, "▁اسماعیل": 4563, "▁راس": 4564, "▁نبیوں": 4565, "▁misdeeds": 4566, "▁سمیت": 4567, "▁سوچا": 4568, "آئندہ": 4569, "▁rising": 4570, "▁این": 4571, "▁Daniel": 4572, "▁courage": 4573, "اوندھے": 4574, "▁رواں": 4575, "▁پھاڑ": 4576, "▁Was": 4577, "▁armies": 4578, "▁enjoyed": 4579, "▁goods": 4580, "▁shal": 4581, "فقط": 4582, "▁tarried": 4583, "▁اونٹنی": 4584, "▁خراب": 4585, "▁شعور": 4586, "▁کاہن": 4587, "▁کہیے": 4588, "▁Dur": 4589, "▁pursued": 4590, "▁اموال": 4591, "▁یرمیاہ": 4592, "▁Hearer": 4593, "▁پھرے": 4594, "▁ہستی": 4595, "then": 4596, "▁argument": 4597, "▁الٹ": 4598, "▁حمایتی": 4599, "▁یونانی": 4600, "▁fish": 4601, "▁iron": 4602, "▁سیر": 4603, "▁direct": 4604, "▁چشموں": 4605, "▁disobedience": 4606, "▁advance": 4607, "▁بھرپور": 4608, "▁دامن": 4609, "b": 4610, "▁از": 4611, "▁پاتا": 4612, "▁Sign": 4613, "▁پھرو": 4614, "▁activities": 4615, "▁address": 4616, "▁appeared": 4617, "▁trying": 4618, "▁ٹھہرے": 4619, "▁مارتا": 4620, "▁ماہ": 4621, "ٴ": 4622, "▁اتنے": 4623, "▁صلاحیت": 4624, "▁Salih": 4625, "▁sort": 4626, "▁willingly": 4627, "▁آچکا": 4628, "Let": 4629, "▁Come": 4630, "▁چمک": 4631, "▁arrived": 4632, "▁broke": 4633, "▁eight": 4634, "▁آٹھ": 4635, "▁استغفار": 4636, "دوبارہ": 4637, "ہمارے": 4638, "▁instance": 4639, "▁sealed": 4640, "▁سوالوں": 4641, "▁کعبہ": 4642, "▁گیا۔": 4643, "▁11:": 4644, "▁mocked": 4645, "▁بولنے": 4646, "▁تعلقات": 4647, "▁خرید": 4648, "▁نکلا": 4649, "▁looked": 4650, "▁magicians": 4651, "▁کرینگے": 4652, "▁Zalimun": 4653, "▁avert": 4654, "▁confidence": 4655, "▁mock": 4656, "▁رسی": 4657, "▁awe": 4658, "▁tested": 4659, "▁sail": 4660, "▁بلات": 4661, "▁friendship": 4662, "▁قربت": 4663, "▁Protector": 4664, "▁exalt": 4665, "▁older": 4666, "▁جانچ": 4667, "▁دلی": 4668, "▁لگانے": 4669, "▁نمایاں": 4670, "▁جم": 4671, "▁حدود": 4672, "▁نیند": 4673, "کردہ": 4674, "▁Eat": 4675, "▁disclose": 4676, "▁load": 4677, "▁opportunity": 4678, "▁عیس": 4679, "▁قبضہ": 4680, "▁کھائے": 4681, "▁10.": 4682, "▁First": 4683, "▁assign": 4684, "▁indecency": 4685, "▁violent": 4686, "▁مبارک": 4687, "▁ہوش": 4688, "پیغمبر": 4689, "▁animal": 4690, "▁answers": 4691, "▁declared": 4692, "▁refuse": 4693, "▁دیوانہ": 4694, "one": 4695, "▁rewards": 4696, "▁secrets": 4697, "▁مارا": 4698, "کافروں": 4699, "▁عصا": 4700, "▁bears": 4701, "▁overtook": 4702, "▁response": 4703, "▁pages": 4704, "▁satan": 4705, "▁spouses": 4706, "▁سوچیں": 4707, "▁Ishmael": 4708, "▁جسمانی": 4709, "▁generation": 4710, "▁increases": 4711, "▁invited": 4712, "▁کیونکر": 4713, "▁Though": 4714, "▁goal": 4715, "▁saith": 4716, "▁skins": 4717, "▁نامہ": 4718, "توریت": 4719, "▁informed": 4720, "▁poverty": 4721, "▁safety": 4722, "▁treasure": 4723, "▁مسکین": 4724, "▁آغاز": 4725, "▁guideth": 4726, "▁پوجا": 4727, "خ": 4728, "▁government": 4729, "▁حمل": 4730, "▁ڈالتا": 4731, "▁Universe": 4732, "▁swallow": 4733, "▁مسئل": 4734, "▁معنی": 4735, "ي": 4736, "ہو": 4737, "▁According": 4738, "▁provisions": 4739, "▁خیالات": 4740, "▁ہود": 4741, "▁apply": 4742, "▁balance": 4743, "▁خطرہ": 4744, "▁نکالنے": 4745, "mankind": 4746, "▁Maryam": 4747, "▁شرم": 4748, "چوپایوں": 4749, "▁expelled": 4750, "▁تصور": 4751, "▁نوازا": 4752, "▁Eden": 4753, "▁M": 4754, "▁خلق": 4755, "▁کریگا": 4756, "▁بارہ": 4757, "▁واعظ": 4758, "▁Hebrews": 4759, "▁Save": 4760, "▁Show": 4761, "▁extent": 4762, "▁ward": 4763, "▁dark": 4764, "▁pieces": 4765, "▁سرزمین": 4766, "▁مائیں": 4767, "▁allies": 4768, "▁local": 4769, "▁جوانی": 4770, "▁زیر": 4771, "▁مانگا": 4772, "▁موتی": 4773, "▁harvest": 4774, "▁similitude": 4775, "▁جنگل": 4776, "▁لپیٹ": 4777, "▁ہوشیار": 4778, "▁generous": 4779, "▁hunger": 4780, "▁بتاتا": 4781, "▁حسد": 4782, "▁سیکھتے": 4783, "▁lands": 4784, "مہینوں": 4785, "▁G": 4786, "▁type": 4787, "▁تمثیل": 4788, "▁خوبصورت": 4789, "▁معاوضہ": 4790, "▁نقش": 4791, "▁والیاں": 4792, "▁Genesis": 4793, "▁بہشتوں": 4794, "camel": 4795, "خدائے": 4796, "دل": 4797, "میرے": 4798, "▁بتانے": 4799, "▁کمایا": 4800, "▁prefer": 4801, "▁sorcery": 4802, "▁بیٹی": 4803, "▁جلال": 4804, "▁عادت": 4805, "▁قصہ": 4806, "▁ٹھہرایا": 4807, "▁بناکر": 4808, "▁ذمے": 4809, "▁changes": 4810, "▁بلاتا": 4811, "▁پردے": 4812, "▁big": 4813, "▁جنات": 4814, "▁imagine": 4815, "▁youths": 4816, "▁شفاعت": 4817, "دھر": 4818, "زندگی": 4819, "▁devoted": 4820, "▁statement": 4821, "▁تعلیمات": 4822, "▁جاندار": 4823, "▁ڈرے": 4824, "▁۳۵": 4825, "▁23": 4826, "▁lofty": 4827, "▁یہود": 4828, "▁addition": 4829, "▁خوبیاں": 4830, "▁دشمنی": 4831, "▁طرز": 4832, "▁harmdoers": 4833, "▁نتیج": 4834, "▁7:": 4835, "▁hinder": 4836, "▁discourse": 4837, "▁آل": 4838, "▁تازہ": 4839, "▁جھونک": 4840, "▁Muslim": 4841, "▁Seeing": 4842, "▁begin": 4843, "▁purified": 4844, "▁sets": 4845, "▁تحت": 4846, "▁de": 4847, "▁desert": 4848, "▁judges": 4849, "▁scriptures": 4850, "▁throughout": 4851, "▁باب": 4852, "▁جناب": 4853, "▁مکان": 4854, "▁devour": 4855, "▁nights": 4856, "▁ملیں": 4857, "اعمال": 4858, "▁آچکی": 4859, "▁Here": 4860, "▁available": 4861, "▁detail": 4862, "▁excuses": 4863, "▁چھو": 4864, "▁inside": 4865, "▁حرمت": 4866, "▁خاک": 4867, "there": 4868, "ستعمال": 4869, "چکے": 4870, "▁adornment": 4871, "▁برتاؤ": 4872, "▁دکھائیں": 4873, "▁stood": 4874, "▁surrender": 4875, "▁thrown": 4876, "▁پے": 4877, "آج": 4878, "▁certainty": 4879, "▁getting": 4880, "▁affection": 4881, "▁وادی": 4882, "▁گلے": 4883, "▁پڑتی": 4884, "▁33": 4885, "▁Hence": 4886, "▁Scriptural": 4887, "▁کھو": 4888, "▁۳۷": 4889, "لاش": 4890, "some": 4891, "▁area": 4892, "▁اوروہ": 4893, "▁بازو": 4894, "▁حامی": 4895, "▁شدہ": 4896, "Woe": 4897, "others": 4898, "▁disbelieves": 4899, "▁foot": 4900, "▁مرکز": 4901, "▁مینہ": 4902, "▁نمونہ": 4903, "سرائیل": 4904, "▁burn": 4905, "▁صحیف": 4906, "▁گمراه": 4907, "▁Add": 4908, "▁Lut": 4909, "▁grave": 4910, "▁river": 4911, "▁shame": 4912, "▁تقو": 4913, "▁رنجید": 4914, "compassionate": 4915, "راہ": 4916, "▁treaty": 4917, "▁ٹوٹ": 4918, "▁Bring": 4919, "▁Call": 4920, "▁Cause": 4921, "▁silk": 4922, "▁اونچی": 4923, "▁پڑھو": 4924, "▁fabricated": 4925, "▁واحد": 4926, "▁آگئی": 4927, "▁سمیٹ": 4928, "▁Bounty": 4929, "▁Godwary": 4930, "▁business": 4931, "▁mate": 4932, "For": 4933, "Knower": 4934, "▁deem": 4935, "▁gush": 4936, "▁لو۔": 4937, "▁forged": 4938, "▁nine": 4939, "▁restore": 4940, "▁showing": 4941, "▁پھرنا": 4942, "now": 4943, "تاکہ": 4944, "▁formed": 4945, "▁organization": 4946, "▁payment": 4947, "▁خالی": 4948, "▁طوق": 4949, ")?\"": 4950, "▁expel": 4951, "▁supported": 4952, "▁شریر": 4953, "ذرہ": 4954, "▁shelter": 4955, "▁زیتون": 4956, "▁ہفتے": 4957, "بخش": 4958, "قوم": 4959, "▁await": 4960, "▁couple": 4961, "▁privilege": 4962, "▁جنس": 4963, "▁trouble": 4964, "▁Keep": 4965, "▁appreciate": 4966, "▁choice": 4967, "▁express": 4968, "▁تول": 4969, "▁داہنے": 4970, "▁معجزہ": 4971, "▁خ": 4972, "▁مزا": 4973, "▁ملکیت": 4974, "▁گریز": 4975, "▁8.": 4976, "▁اورجو": 4977, "▁علاقوں": 4978, "▁incline": 4979, "▁nay": 4980, "▁داد": 4981, "▁enmity": 4982, "▁exposed": 4983, "▁replace": 4984, "▁پھیلات": 4985, "▁crops": 4986, "▁salvation": 4987, "▁teachings": 4988, "▁فیصد": 4989, "▁لانا": 4990, "ندے": 4991, "▁Extract": 4992, "▁Wisdom": 4993, "▁standards": 4994, "▁terms": 4995, "▁علاج": 4996, "▁چھپی": 4997, "good": 4998, "▁چوپائے": 4999, "▁مسافروں": 5000, "▁dealt": 5001, "▁event": 5002, "▁پست": 5003, "▁بادلوں": 5004, "▁حوا": 5005, "▁ستاروں": 5006, "▁فی": 5007, "▁چھت": 5008, "وی": 5009, "▁دعائ": 5010, "▁مچھلی": 5011, "▁justly": 5012, "▁wall": 5013, "▁نکلتے": 5014, "▁پکاریں": 5015, "▁دانشمند": 5016, "▁Ark": 5017, "▁percent": 5018, "▁اٹھے": 5019, "▁دئیے": 5020, "▁نامی": 5021, "▁پریشانی": 5022, "Mighty": 5023, "علانیہ": 5024, "▁Therein": 5025, "▁experienced": 5026, "▁وفات": 5027, "بتوں": 5028, "کافر": 5029, "▁bitter": 5030, "▁heirs": 5031, "▁moral": 5032, "▁related": 5033, "▁speaks": 5034, "▁زبردستی": 5035, "▁قبلہ": 5036, "▁Blessed": 5037, "▁جھٹلائے": 5038, "▁راستی": 5039, "▁روی": 5040, "▁class": 5041, "▁room": 5042, "▁اندازے": 5043, "▁بصیرت": 5044, "▁رہے۔": 5045, "▁مقرب": 5046, "▁Follow": 5047, "▁پہنچانا": 5048, "▁daughter": 5049, "▁realized": 5050, "▁امور": 5051, "▁ڈھیل": 5052, "▁7.": 5053, "▁obtain": 5054, "▁ridicule": 5055, "▁integrity": 5056, "▁جائزہ": 5057, "▁جذبات": 5058, "تمام": 5059, "▁overtake": 5060, "▁مشقت": 5061, "▁admitted": 5062, "▁Leave": 5063, "▁Saul": 5064, "▁Verses": 5065, "▁chastise": 5066, "▁frustrate": 5067, "▁visible": 5068, "▁اٹھائیں": 5069, "▁غصے": 5070, "▁ڈبو": 5071, "حکمت": 5072, "▁million": 5073, "▁ruined": 5074, "▁بتاؤں": 5075, "▁بندوبست": 5076, "▁مرقس": 5077, "▁ویسے": 5078, "▁fresh": 5079, "Take": 5080, "▁immediately": 5081, "▁regularly": 5082, "نسا": 5083, "▁Owner": 5084, "▁shirt": 5085, "▁wary": 5086, "▁امریکہ": 5087, "▁اوقات": 5088, "▁سالہ": 5089, "▁مقصود": 5090, "▁12.": 5091, "▁consequence": 5092, "▁prostrating": 5093, "▁vital": 5094, "▁اراد": 5095, "دے": 5096, "▁Hast": 5097, "▁chaste": 5098, "▁eating": 5099, "▁honoured": 5100, "▁seas": 5101, "▁transgressing": 5102, "▁حاجت": 5103, "▁دیکھنا": 5104, "▁ٹل": 5105, "▁godly": 5106, "▁مضامین": 5107, "▁9.": 5108, "▁network": 5109, "▁ترک": 5110, "”": 5111, "▁oil": 5112, "▁آف": 5113, "▁14.": 5114, "▁leaving": 5115, "▁بڑھے": 5116, "▁خطرے": 5117, "▁دانش": 5118, "▁intended": 5119, "▁یہوداہ": 5120, "▁26": 5121, "▁جھگڑے": 5122, "▁ascend": 5123, "▁laugh": 5124, "▁protectors": 5125, "▁requited": 5126, "▁ظاہری": 5127, "▁مغلوب": 5128, "▁abiding": 5129, "▁al": 5130, "▁books": 5131, "▁congregations": 5132, "▁ornaments": 5133, "▁successors": 5134, "▁بھٹکا": 5135, "▁ملازمت": 5136, "حقیقت": 5137, "▁covering": 5138, "▁drawn": 5139, "▁excuse": 5140, "▁pioneer": 5141, "▁steps": 5142, "▁جنسی": 5143, "▁oppressed": 5144, "▁remains": 5145, "▁sitting": 5146, "▁tribes": 5147, "▁آزمائے": 5148, "▁جرم": 5149, "▁سکتے۔": 5150, "▁forces": 5151, "▁چیخ": 5152, "معجزے": 5153, "▁بتاتے": 5154, "▁بدولت": 5155, "▁عداوت": 5156, "▁ہنس": 5157, "Would": 5158, "aun": 5159, "▁بہکے": 5160, "▁پیمان": 5161, "▁crime": 5162, "▁males": 5163, "▁permitted": 5164, "▁relate": 5165, "▁دوزخی": 5166, "▁پسندیدہ": 5167, "▁۴۰": 5168, "جن": 5169, "▁giveth": 5170, "▁دلیری": 5171, "▁فرماتے": 5172, "what": 5173, "▁encompasse": 5174, "▁rock": 5175, "▁quickly": 5176, "▁bodies": 5177, "▁انکے": 5178, "▁5.": 5179, "▁Un": 5180, "▁drinking": 5181, "▁آندھی": 5182, "▁بدلنے": 5183, "▁killing": 5184, "▁weakness": 5185, "▁بہتری": 5186, "▁تیزی": 5187, "▁سوالات": 5188, "▁beasts": 5189, "▁denies": 5190, "▁ادھر": 5191, "▁تیم": 5192, "▁پیو": 5193, "before": 5194, "▁denying": 5195, "▁occasion": 5196, "▁required": 5197, "▁stories": 5198, "▁States": 5199, "▁earthly": 5200, "▁receiving": 5201, "▁ناراض": 5202, "▁suffices": 5203, "▁بڑھاپے": 5204, "▁حیثیت": 5205, "▁درختوں": 5206, "ردہ": 5207, "▁Proclaim": 5208, "▁برگزیدہ": 5209, "▁تقریر": 5210, "▁سوچتے": 5211, ",”": 5212, "▁Hud": 5213, "▁dumb": 5214, "▁keeps": 5215, "قدرت": 5216, "▁reasons": 5217, "▁relations": 5218, "▁بنایا۔": 5219, "▁خزانہ": 5220, "▁فروغ": 5221, "Noah": 5222, "▁Majestic": 5223, "▁corn": 5224, "▁falls": 5225, "▁results": 5226, "▁سفارشی": 5227, "▁ولی": 5228, "▁کروگے": 5229, "▁ایندھن": 5230, "▁فائده": 5231, "▁نطفہ": 5232, "▁deceived": 5233, "▁forgiven": 5234, "▁تحفظ": 5235, "▁خطا": 5236, "▁چھوٹا": 5237, "وقتی": 5238, "▁magician": 5239, "▁seems": 5240, "▁trials": 5241, "▁بادشاہتی": 5242, "▁pleasing": 5243, "Now": 5244, "▁activity": 5245, "▁helping": 5246, "▁humbled": 5247, "▁vast": 5248, "▁تیر": 5249, "▁رخصت": 5250, "▁لڑکیوں": 5251, "▁countries": 5252, "▁growth": 5253, "▁laden": 5254, "▁pilgrimage": 5255, "▁دروازہ": 5256, "▁سینہ": 5257, "▁ہانک": 5258, "▁Being": 5259, "▁Thereupon": 5260, "▁admonished": 5261, "Jehovah": 5262, "▁degrees": 5263, "▁include": 5264, "▁withhold": 5265, "▁کردوں": 5266, "▁agree": 5267, "▁celebrate": 5268, "▁directed": 5269, "▁didst": 5270, "▁grasp": 5271, "▁تحریر": 5272, "▁hate": 5273, "▁loan": 5274, "▁باری": 5275, "▁دھوپ": 5276, "▁constant": 5277, "▁lack": 5278, "▁seemed": 5279, "▁ترتیب": 5280, "▁freedom": 5281, "▁game": 5282, "▁persist": 5283, "▁اندھیر": 5284, "▁جاننا": 5285, "اہل": 5286, "یہی": 5287, "▁11.": 5288, "▁کلمہ": 5289, "▁completed": 5290, "▁convinced": 5291, "▁exceed": 5292, "▁resort": 5293, "▁پرواہ": 5294, "▁Again": 5295, "▁احساسات": 5296, "▁براہ": 5297, "▁دانائی": 5298, "▁صابر": 5299, "▁یوسفؑ": 5300, "▁consume": 5301, "حقیقی": 5302, "▁Whoso": 5303, "▁numerous": 5304, "▁united": 5305, "▁جوڑ": 5306, "▁جھکے": 5307, "●": 5308, "Salat": 5309, "▁carrying": 5310, "▁کھڑی": 5311, "▁27": 5312, "▁rejoicing": 5313, "▁لائی": 5314, "کبھی": 5315, "▁becoming": 5316, "▁bore": 5317, "▁fulfillment": 5318, "....": 5319, "▁28": 5320, "▁appropriate": 5321, "▁content": 5322, "▁سموئیل": 5323, "▁مسئلہ": 5324, "too": 5325, "وپر": 5326, "▁forsake": 5327, "▁ص": 5328, "▁چکھا": 5329, "▁Moreover": 5330, "▁conscience": 5331, "▁crowd": 5332, "▁influence": 5333, "▁thine": 5334, "▁ڈرایا": 5335, "▁32": 5336, "▁Sabbath": 5337, "▁باندھا": 5338, "▁عزم": 5339, "▁لڑکیاں": 5340, "ہماری": 5341, "ہیں": 5342, "▁3.": 5343, "▁differences": 5344, "▁mindful": 5345, "▁release": 5346, "▁Guidance": 5347, "▁reasonable": 5348, "▁watching": 5349, "▁مرنا": 5350, "▁کاروبار": 5351, "▁advantage": 5352, "▁آجانے": 5353, "▁دھوکا": 5354, "▁پوچھے": 5355, "▁کريں": 5356, "if": 5357, "▁29": 5358, "▁challenge": 5359, "▁role": 5360, "▁منافقین": 5361, "▁Ad": 5362, "▁distance": 5363, "▁fuel": 5364, "▁listened": 5365, "▁پلٹن": 5366, "▁....": 5367, "▁grants": 5368, "▁humbly": 5369, "▁اڑا": 5370, "▁race": 5371, "▁تابعداری": 5372, "▁لپٹ": 5373, "▁31": 5374, "▁Also": 5375, "▁guests": 5376, "▁requite": 5377, "▁ستارے": 5378, "▁appointment": 5379, "▁cup": 5380, "▁طریق": 5381, "ائی": 5382, "▁understood": 5383, "▁workers": 5384, "▁psalmist": 5385, "▁trustworthy": 5386, "▁بیٹھا": 5387, "▁تلے": 5388, "ثر": 5389, "▁Jeremiah": 5390, "▁Jewish": 5391, "▁adorned": 5392, "▁chooses": 5393, "▁regret": 5394, "▁writing": 5395, "▁پہنچاتا": 5396, "▁کرتا۔": 5397, "▁15,": 5398, "▁breast": 5399, "▁text": 5400, "▁اول": 5401, "▁بتائیں": 5402, "▁دفتر": 5403, "▁ی": 5404, "کشتیاں": 5405, "▁blazing": 5406, "▁described": 5407, "▁report": 5408, "▁باشندوں": 5409, "▁ميں": 5410, "▁چمکتا": 5411, "ایسی": 5412, "موس": 5413, "▁beginning": 5414, "▁step": 5415, "▁ناگوار": 5416, "باقاعدہ": 5417, "▁Ah": 5418, "▁struggle": 5419, "▁thousands": 5420, "▁ترجیح": 5421, "▁13.": 5422, "▁Recall": 5423, "▁deluded": 5424, "▁witnessed": 5425, "▁ضمیر": 5426, "▁فرش": 5427, "▁کرسکو": 5428, "▁bar": 5429, "▁greeting": 5430, "▁misled": 5431, "when": 5432, "▁Hebrew": 5433, "▁begotten": 5434, "▁grew": 5435, "▁priests": 5436, "▁ride": 5437, "▁حاضری": 5438, "▁مشہور": 5439, "▁مکا": 5440, "▁پوشیده": 5441, "▁innocent": 5442, "▁opposition": 5443, "▁sometimes": 5444, "▁غارت": 5445, "▁مخفی": 5446, "▁ہلا": 5447, "L": 5448, "▁learning": 5449, "▁رشتے": 5450, "▁سناتا": 5451, "▁6.": 5452, "▁Power": 5453, "▁judged": 5454, "▁temptation": 5455, "▁گوا": 5456, "▁putt": 5457, "▁امیدوار": 5458, "▁بہر": 5459, "▁سنگین": 5460, "▁متکبر": 5461, "▁میراث": 5462, "▁نظریہ": 5463, "ٹھانے": 5464, "▁رغبت": 5465, "▁مفید": 5466, "ad": 5467, "▁Thereafter": 5468, "▁dies": 5469, "▁latter": 5470, "▁ہوئیں": 5471, "▁Eve": 5472, "▁prevail": 5473, "▁قدموں": 5474, "▁precious": 5475, "▁selves": 5476, "▁شاعر": 5477, "▁هے": 5478, "▁bliss": 5479, "▁تمنا": 5480, "▁کش": 5481, "▁intercede": 5482, "▁welcome": 5483, "▁روبرو": 5484, "▁منظر": 5485, "▁Another": 5486, "▁acted": 5487, "▁befell": 5488, "▁students": 5489, "▁بندو": 5490, "▁ماحول": 5491, "▁harmony": 5492, "▁slew": 5493, "▁اڑایا": 5494, "▁Self": 5495, "▁positive": 5496, "▁ڈرائیں": 5497, "تمہاری": 5498, "نبی": 5499, "▁outside": 5500, "▁sell": 5501, "▁جنتیں": 5502, "طرح": 5503, "▁dreadful": 5504, "▁uses": 5505, "▁blast": 5506, "▁لڑکوں": 5507, "▁Remembrance": 5508, "▁assist": 5509, "▁likewise": 5510, "▁transgressed": 5511, "▁17.": 5512, "▁About": 5513, "▁تیل": 5514, "▁holds": 5515, "▁succour": 5516, "▁wax": 5517, "▁wrongfully": 5518, "▁denial": 5519, "▁اگلی": 5520, "▁تشریف": 5521, "▁عز": 5522, "▁ورڈ": 5523, "▁corrupt": 5524, "▁باقاعد": 5525, "▁تکیہ": 5526, "▁across": 5527, "▁describe": 5528, "▁نظرانداز": 5529, "کارت": 5530, "▁beauty": 5531, "▁natural": 5532, "▁victorious": 5533, "▁کرتے۔": 5534, "▁training": 5535, "▁لالچ": 5536, "▁نصرت": 5537, "▁15.": 5538, "▁committing": 5539, "▁intercessors": 5540, "▁برسا": 5541, "▁قافل": 5542, "▁مسلسل": 5543, "▁گاڑی": 5544, "جحان": 5545, "▁Its": 5546, "▁abandon": 5547, "▁prostration": 5548, "▁ہوچکی": 5549, "▁16.": 5550, "▁Credit": 5551, "▁deeply": 5552, "▁praying": 5553, "▁معمولی": 5554, "▁موضوع": 5555, "▁کھایا": 5556, "be": 5557, "▁غنی": 5558, "▁مفسد": 5559, "توراۃ": 5560, "غلہ": 5561, "▁Others": 5562, "▁guarded": 5563, "▁اکیلے": 5564, "▁بہک": 5565, "▁مشنری": 5566, "▁پہنچاتے": 5567, "▁گروه": 5568, "▁Help": 5569, "▁آپکے": 5570, "▁ضرر": 5571, "▁موزوں": 5572, "▁وی": 5573, "ful": 5574, "▁8,": 5575, "▁8:": 5576, "▁store": 5577, "▁بردبار": 5578, "▁بیہودہ": 5579, "▁پالنے": 5580, "▁گہرا": 5581, "ازاں": 5582, "کبھار": 5583, "▁سائے": 5584, "▁نکالی": 5585, "▁Praiseworthy": 5586, "▁بکری": 5587, "اسرائیل": 5588, "▁endowed": 5589, "▁foretold": 5590, "▁usury": 5591, "▁جاسکتا": 5592, "▁accounts": 5593, "▁greatly": 5594, "▁moment": 5595, "▁published": 5596, "▁remind": 5597, "▁انکی": 5598, "▁خرو": 5599, "▁ہار": 5600, "▁East": 5601, "▁niggardly": 5602, "▁reality": 5603, "▁امداد": 5604, "▁خاتمہ": 5605, "▁نادان": 5606, "▁پار": 5607, "▁develop": 5608, "▁rage": 5609, "▁re": 5610, "▁sickness": 5611, "▁warners": 5612, "▁آبادی": 5613, "▁بدن": 5614, "▁کیتھولک": 5615, "▁گہری": 5616, "▁ہتھیار": 5617, "u": 5618, "▁depart": 5619, "▁legal": 5620, "▁waters": 5621, "▁جائیں۔": 5622, "گزشتہ": 5623, "▁آماد": 5624, "▁ابتدائی": 5625, "▁ڈھانپ": 5626, "▁ہوجا": 5627, "which": 5628, "▁feeding": 5629, "▁عدالت": 5630, "▁15:": 5631, "▁dislike": 5632, "▁fearful": 5633, "▁length": 5634, "▁stray": 5635, "▁فہرست": 5636, "▁نیکیوں": 5637, "▁گھس": 5638, "▁encompassed": 5639, "upon": 5640, "موسی": 5641, "▁causing": 5642, "▁dedicated": 5643, "▁outcome": 5644, "▁دھنسا": 5645, "▁رپورٹ": 5646, "▁منتقل": 5647, "▁نذر": 5648, "▁نگرانی": 5649, "Hell": 5650, "man": 5651, "اوقات": 5652, "▁modern": 5653, "▁smite": 5654, "▁اعرا": 5655, "▁جہاز": 5656, "▁نصرانی": 5657, "▁کفا": 5658, "چلن": 5659, "کیونکہ": 5660, "▁Hand": 5661, "▁altogether": 5662, "▁drew": 5663, "▁heels": 5664, "▁انبیاء": 5665, "▁منکرین": 5666, "▁کھولت": 5667, "فرشتے": 5668, "مسلط": 5669, "▁Firaun": 5670, "▁appreciation": 5671, "▁حص": 5672, "▁ز": 5673, "▁زیور": 5674, "▁لیتی": 5675, "Joseph": 5676, "▁hair": 5677, "▁intend": 5678, "▁mockery": 5679, "▁obeys": 5680, "▁درواز": 5681, "▁قرب": 5682, "▁لمبی": 5683, "▁کھولیں": 5684, "▁camel": 5685, "▁humiliation": 5686, "▁persevere": 5687, "▁بعید": 5688, "▁40": 5689, "▁opinion": 5690, "▁پیسے": 5691, "▁سیکھنے": 5692, "▁لونڈی": 5693, "▁loose": 5694, "▁restored": 5695, "▁trade": 5696, "▁verse": 5697, "▁girl": 5698, "▁lightning": 5699, "▁ponder": 5700, "▁بلانے": 5701, "▁مارتے": 5702, "▁گلتی": 5703, "▁correct": 5704, "▁insolent": 5705, "▁inspiration": 5706, "▁علامت": 5707, "▁کشتیوں": 5708, "▁ہامان": 5709, "▁numbers": 5710, "▁preserve": 5711, "▁باندھت": 5712, "▁بولی": 5713, "▁ریشم": 5714, "▁سلسلہ": 5715, "▁گزرا": 5716, "لقدس": 5717, "▁Roman": 5718, "▁VPN": 5719, "▁cave": 5720, "▁بسر": 5721, "▁خوشنما": 5722, "Eat": 5723, "▁Aye": 5724, "▁feeling": 5725, "▁inclined": 5726, "▁restrain": 5727, "▁دنیاوی": 5728, "▁واجب": 5729, "لمات": 5730, "▁concerned": 5731, "▁current": 5732, "▁selected": 5733, "▁بازی": 5734, "▁سروں": 5735, "▁لکھنے": 5736, "▁broken": 5737, "▁debt": 5738, "▁delay": 5739, "▁urge": 5740, "▁علیم": 5741, "▁plants": 5742, "▁seeks": 5743, "▁مشغول": 5744, "en": 5745, "یوسف": 5746, "▁chief": 5747, "▁job": 5748, "▁specified": 5749, "▁فروخت": 5750, "▁وجوہات": 5751, "▁گمراہوں": 5752, "▁genuine": 5753, "▁preceded": 5754, "▁Light": 5755, "▁encourage": 5756, "▁listening": 5757, "▁stern": 5758, "▁بیٹیوں": 5759, "▁سیکھا": 5760, "▁baptism": 5761, "▁guile": 5762, "▁veil": 5763, "▁تکمیل": 5764, "▁وعدوں": 5765, "P": 5766, "▁undoubtedly": 5767, "▁accepts": 5768, "▁basis": 5769, "▁daily": 5770, "▁plotted": 5771, "▁quite": 5772, "▁ٹھنڈی": 5773, "یے": 5774, "▁commandments": 5775, "▁dog": 5776, "▁miracle": 5777, "▁weigh": 5778, "▁تبلیغ": 5779, "▁کھلم": 5780, "▁Mark": 5781, "▁afterwards": 5782, "▁quality": 5783, "▁revert": 5784, "▁superior": 5785, "دیں": 5786, "▁enduring": 5787, "▁necessary": 5788, "▁prostrated": 5789, "▁بنیں": 5790, "▁سرگوشی": 5791, "▁ہڈیوں": 5792, "ئیں": 5793, "▁Sufficient": 5794, "▁Supreme": 5795, "▁pearls": 5796, "▁pour": 5797, "▁shameful": 5798, "▁تیاری": 5799, "▁تیسر": 5800, "▁سواری": 5801, "▁گاؤں": 5802, "▁3,": 5803, "▁languages": 5804, "▁wickedness": 5805, "▁پھریں": 5806, "▁bond": 5807, "▁compassion": 5808, "▁twelve": 5809, "▁اعما": 5810, "رب": 5811, "▁bird": 5812, "▁condemned": 5813, "▁flight": 5814, "▁mates": 5815, "▁negative": 5816, "Alone": 5817, "scribed": 5818, "دونوں": 5819, "وگردان": 5820, "▁branch": 5821, "▁desiring": 5822, "▁disaster": 5823, "▁faced": 5824, "▁بھیجنے": 5825, "▁عمررسید": 5826, "▁مقامی": 5827, "▁ڈھانک": 5828, "▁کرتوتوں": 5829, "▁Ya": 5830, "▁آپہنچا": 5831, "▁برکات": 5832, "▁چکھن": 5833, "▁Midian": 5834, "▁plans": 5835, "▁تہہ": 5836, "▁روٹی": 5837, "▁چھٹ": 5838, "▁یس": 5839, "Call": 5840, "]?": 5841, "ال": 5842, "▁Companions": 5843, "▁Nothing": 5844, "▁wander": 5845, "▁سولی": 5846, "▁oppose": 5847, "▁plead": 5848, "▁حقیر": 5849, "▁وزن": 5850, "▁پہنچیں": 5851, "▁Words": 5852, "▁ش": 5853, "▁پلایا": 5854, "▁کونسے": 5855, "▁angry": 5856, "▁camels": 5857, "▁distant": 5858, "▁facing": 5859, "awn": 5860, "▁settle": 5861, "▁دستیاب": 5862, "▁favoured": 5863, "▁fortune": 5864, "▁آور": 5865, "▁بدلا": 5866, "▁ترغیب": 5867, "▁پیچھا": 5868, "▁eternal": 5869, "▁millions": 5870, "▁pressure": 5871, "▁لڑنے": 5872, "▁Open": 5873, "▁carefully": 5874, "▁prepare": 5875, "▁لوں": 5876, "▁Makkah": 5877, "▁afterward": 5878, "▁scripture": 5879, "▁لڑیں": 5880, "▁مقدور": 5881, "جانے": 5882, "▁intends": 5883, "▁حیرت": 5884, "▁خوشگوار": 5885, "▁عبرانی": 5886, "▁نیت": 5887, "نویس": 5888, "یشگی": 5889, "▁West": 5890, "▁acceptable": 5891, "▁caravan": 5892, "▁charged": 5893, "▁́": 5894, "▁میاں": 5895, "▁ڈھیر": 5896, "▁کشاد": 5897, "2": 5898, "رائی": 5899, "▁level": 5900, "▁surrendered": 5901, "▁tears": 5902, "▁warm": 5903, "▁بابل": 5904, "بھال": 5905, "▁below": 5906, "▁expression": 5907, "▁اذن": 5908, "▁تشدد": 5909, "▁مجلس": 5910, "▁پیتے": 5911, "▁Trumpet": 5912, "▁hypocrisy": 5913, "▁relative": 5914, "▁خوفزدہ": 5915, "▁ناخوش": 5916, "Remember": 5917, "ation": 5918, "ردو": 5919, "▁reform": 5920, "▁زائد": 5921, "▁۴۴": 5922, "قدس": 5923, "▁clothing": 5924, "▁rescue": 5925, "▁worldwide": 5926, "▁بچپن": 5927, "▁ترازو": 5928, "▁چھین": 5929, "مت": 5930, "▁Assuredly": 5931, "▁gifts": 5932, "▁owners": 5933, "▁yellow": 5934, "▁تعظیم": 5935, "▁درکار": 5936, "▁راحت": 5937, "▁amount": 5938, "▁entrusted": 5939, "▁forced": 5940, "▁idea": 5941, "▁تفریح": 5942, "▁سپرد": 5943, "▁assembly": 5944, "▁mouth": 5945, "▁ابتدا": 5946, "▁تجویز": 5947, "▁دفع": 5948, "▁کرسکیں": 5949, "▁منظور": 5950, "قدر": 5951, "▁Line": 5952, "▁Over": 5953, "▁chance": 5954, "▁contain": 5955, "▁cow": 5956, "▁tasted": 5957, "▁رابطہ": 5958, "▁رفاقت": 5959, "▁لوٹنا": 5960, "▁منفی": 5961, "up": 5962, "▁conjecture": 5963, "▁faults": 5964, "▁freely": 5965, "▁likes": 5966, "▁render": 5967, "▁بغاوت": 5968, "▁تہائی": 5969, "▁سناؤ": 5970, "▁معاہدہ": 5971, "▁lamp": 5972, "▁بتائی": 5973, "بھر": 5974, "ڑنے": 5975, "▁education": 5976, "▁higher": 5977, "▁rights": 5978, "▁بدتر": 5979, "▁بیج": 5980, "▁عبر": 5981, "▁معزز": 5982, "بکثرت": 5983, "دوں": 5984, "▁nearest": 5985, "▁withdraw": 5986, "▁لاکھوں": 5987, "▁Punishment": 5988, "▁contains": 5989, "▁sincerely": 5990, "▁استثنا": 5991, "▁خدمتگزاری": 5992, "▁دعو": 5993, "ung": 5994, "▁aversion": 5995, "▁extend": 5996, "▁relief": 5997, "▁بتلا": 5998, "ؐ": 5999, "لیکن": 6000, "▁Alif": 6001, "▁ark": 6002, "▁constantly": 6003, "▁اصلی": 6004, "▁دانے": 6005, "▁مرتے": 6006, "▁ندا": 6007, "▁ڈی": 6008, "سجده": 6009, "▁بھاگے": 6010, "▁مشتمل": 6011, "▁ناامید": 6012, "▁Haman": 6013, "▁sport": 6014, "▁اکیلا": 6015, "▁بیٹھیں": 6016, "▁شوق": 6017, "نسان": 6018, "▁bid": 6019, "▁demand": 6020, "▁office": 6021, "▁مڑ": 6022, "▁کھائی": 6023, "▁adds": 6024, "▁focus": 6025, "▁vegetation": 6026, "▁whence": 6027, "▁کافرو": 6028, "▁کشی": 6029, "▁50": 6030, "▁Later": 6031, "▁Turn": 6032, "▁contact": 6033, "▁non": 6034, "▁regarded": 6035, "▁Judah": 6036, "▁fled": 6037, "▁ignore": 6038, "▁imperfect": 6039, "▁keepers": 6040, "▁neglected": 6041, "▁performed": 6042, "▁ساز": 6043, "▁چور": 6044, "▁آئے۔": 6045, "▁مض": 6046, "▁distinction": 6047, "▁اخلاقی": 6048, "▁انھیں": 6049, "▁سوچنے": 6050, "بلکہ": 6051, "▁adultery": 6052, "▁livelihood": 6053, "▁آن": 6054, "▁ہونی": 6055, "﴾": 6056, "▁Box": 6057, "▁accurate": 6058, "▁دریاؤں": 6059, "▁سانپ": 6060, "ting": 6061, "▁canst": 6062, "▁east": 6063, "▁village": 6064, "▁انتہا": 6065, "▁لکھتے": 6066, "▁Blaze": 6067, "▁Ra": 6068, "▁kin": 6069, "▁rescued": 6070, "▁reveals": 6071, "▁آمد": 6072, "▁تہمت": 6073, "▁مالی": 6074, "▁YOU": 6075, "▁flocks": 6076, "▁mark": 6077, "▁بخت": 6078, "▁بچالیا": 6079, "▁ط": 6080, "▁غفور": 6081, "▁مونہوں": 6082, "▁مکانات": 6083, "▁پھوٹ": 6084, "ier": 6085, "▁U": 6086, "▁arms": 6087, "▁knowingly": 6088, "▁حقوق": 6089, "▁مینار": 6090, "▁چلاتا": 6091, "لیکر": 6092, "▁Create": 6093, "▁examine": 6094, "▁fashioned": 6095, "▁بچاؤ": 6096, "مقرر": 6097, "▁contrary": 6098, "▁conversation": 6099, "▁general": 6100, "▁repaid": 6101, "▁simple": 6102, "▁بینا": 6103, "بچھڑے": 6104, "نگہبانی": 6105, "▁1.": 6106, "▁proclaimed": 6107, "▁صداقت": 6108, "▁گھوڑے": 6109, "these": 6110, "عمال": 6111, "▁encouraged": 6112, "▁lean": 6113, "▁حقدار": 6114, "▁لاکھ": 6115, "▁۳۶": 6116, "نہی": 6117, "▁assignment": 6118, "▁flame": 6119, "▁rests": 6120, "▁فخر": 6121, "▁پہچانت": 6122, ")],": 6123, "▁Through": 6124, "▁church": 6125, "جنت": 6126, "▁Bethel": 6127, "▁TO": 6128, "▁discipline": 6129, "▁happens": 6130, "▁rebel": 6131, "▁revive": 6132, "▁submissive": 6133, "▁x": 6134, "▁View": 6135, "▁تدبیریں": 6136, "▁smoke": 6137, "▁ungodly": 6138, "▁اطلاع": 6139, "▁عجب": 6140, "▁نابود": 6141, "▁پائنیر": 6142, "▁کرسکے": 6143, "ٹھنے": 6144, "▁24:": 6145, "▁communities": 6146, "▁individual": 6147, "▁solemn": 6148, "▁مزدوری": 6149, "▁otherwise": 6150, "▁آگئے": 6151, "وسوسہ": 6152, "▁kings": 6153, "▁بھرا": 6154, "k": 6155, "بعض": 6156, "بیعت": 6157, "سخت": 6158, "سمیں": 6159, "▁Think": 6160, "▁accomplish": 6161, "▁averted": 6162, "▁dreams": 6163, "▁waves": 6164, "▁فقیر": 6165, "▁نکلو": 6166, "▁پکا": 6167, "again": 6168, "لی": 6169, "▁9:": 6170, "▁adopt": 6171, "▁destined": 6172, "▁difference": 6173, "▁injury": 6174, "▁kingship": 6175, "▁maturity": 6176, "▁ادب": 6177, "▁جام": 6178, "▁متاع": 6179, "▁مدینہ": 6180, "▁کلسی": 6181, "ائ": 6182, "▁fasting": 6183, "▁grows": 6184, "▁بدبخت": 6185, "▁بنالیا": 6186, "▁خانے": 6187, "▁فلپیوں": 6188, "▁میسر": 6189, "▁Arabs": 6190, "▁commits": 6191, "▁heir": 6192, "▁inner": 6193, "▁passing": 6194, "▁station": 6195, "▁بانجھ": 6196, "▁پھنس": 6197, "میری": 6198, "▁Knowledge": 6199, "▁admonish": 6200, "▁belongeth": 6201, "▁capacity": 6202, "▁insight": 6203, "▁leading": 6204, "▁meant": 6205, "▁غلاموں": 6206, "▁ہال": 6207, "▁highest": 6208, "▁lightened": 6209, "▁trusted": 6210, "▁سنگسار": 6211, "▁گزاری": 6212, "Even": 6213, "Jews": 6214, "دو": 6215, "▁image": 6216, "▁سکا": 6217, "▁طویل": 6218, "▁غروب": 6219, "▁فروتنی": 6220, "▁مسح": 6221, "▁چڑھا": 6222, "▁Likewise": 6223, "▁Thamood": 6224, "▁doors": 6225, "▁original": 6226, "▁ہوسکتے": 6227, "trees": 6228, "▁Fight": 6229, "▁responded": 6230, "▁satisfied": 6231, "▁sweet": 6232, "▁اصحاب": 6233, "▁دینی": 6234, "▁سمجھنا": 6235, "▁سکھا": 6236, "▁ضد": 6237, "▁۳۸": 6238, "Torah": 6239, "ون": 6240, "▁La": 6241, "▁Night": 6242, "▁conditions": 6243, "▁interests": 6244, "▁youth": 6245, "▁لگائیں": 6246, "▁ماضی": 6247, "▁کھجوروں": 6248, "▁IN": 6249, "▁kindly": 6250, "▁pursue": 6251, "▁wear": 6252, "▁رضامندی": 6253, "▁ریز": 6254, "▁پتے": 6255, "▁ہوا۔": 6256, "انہوں": 6257, "▁referred": 6258, "▁شفیق": 6259, "▁Creation": 6260, "▁buy": 6261, "▁seest": 6262, "▁slander": 6263, "▁ترکہ": 6264, "▁تمسخر": 6265, "▁چنگھاڑ": 6266, "▁awful": 6267, "▁eager": 6268, "▁inheritors": 6269, "▁rained": 6270, "▁مانی": 6271, "due": 6272, "not": 6273, "دیکھو": 6274, "▁difficulty": 6275, "▁equals": 6276, "▁falling": 6277, "▁miles": 6278, "▁scales": 6279, "▁اجداد": 6280, "▁لڑ": 6281, "any": 6282, "جواب": 6283, "▁Love": 6284, "▁engage": 6285, "▁practical": 6286, "▁treated": 6287, "▁تائید": 6288, "▁گونگے": 6289, "See": 6290, "le": 6291, "▁breathed": 6292, "▁flock": 6293, "▁tribulation": 6294, "▁اورہم": 6295, "▁محترم": 6296, "▁پیاس": 6297, "▁گرمی": 6298, "مردود": 6299, "▁danger": 6300, "▁earthquake": 6301, "▁tremendous": 6302, "▁بگڑ": 6303, "▁مغرور": 6304, "▁پلان": 6305, "▁ڈرو۔": 6306, "ائقہ": 6307, "▁red": 6308, "▁zakat": 6309, "▁بندھن": 6310, "▁شہید": 6311, "▁مقامات": 6312, "▁نامراد": 6313, "▁نکلتی": 6314, "خطرناک": 6315, "▁herein": 6316, "▁opening": 6317, "▁trumpet": 6318, "▁universe": 6319, "▁باریک": 6320, "▁علی": 6321, "▁approval": 6322, "▁key": 6323, "▁returning": 6324, "▁spreading": 6325, "▁اکٹھے": 6326, "▁نما": 6327, "▁ورشن": 6328, "▁Other": 6329, "▁arrogance": 6330, "▁foolish": 6331, "▁paths": 6332, "▁بنتے": 6333, "▁مست": 6334, "▁ناممکن": 6335, "▁disputes": 6336, "▁mount": 6337, "▁progeny": 6338, "▁sects": 6339, "▁serpent": 6340, "▁week": 6341, "▁لیجئے": 6342, "▁چاہ": 6343, "▁6,": 6344, "▁eventually": 6345, "▁foreign": 6346, "▁political": 6347, "▁آرائش": 6348, "▁تنہا": 6349, "▁لاٹھی": 6350, "▁پرست": 6351, "صول": 6352, "▁Powerful": 6353, "▁compared": 6354, "▁concealed": 6355, "▁overtaken": 6356, "▁تحمل": 6357, "▁تسکین": 6358, "▁تقریب": 6359, "▁زرد": 6360, "▁Sulaiman": 6361, "▁studying": 6362, "▁بچتے": 6363, "▁خوشیاں": 6364, "▁پھیلانے": 6365, "].\"": 6366, "تنا": 6367, "▁degree": 6368, "▁بالآخر": 6369, "▁بچائے": 6370, "▁رہنما": 6371, "▁نگل": 6372, "▁چاہئیں": 6373, "▁کما": 6374, "پر": 6375, "▁18.": 6376, "▁Forbearing": 6377, "▁attained": 6378, "▁bestows": 6379, "▁conveyed": 6380, "▁diverse": 6381, "▁spoils": 6382, "▁بین": 6383, "x": 6384, "▁beliefs": 6385, "▁threat": 6386, "▁yield": 6387, "▁تنبیہ": 6388, "▁کتا": 6389, "true": 6390, "▁9,": 6391, "▁magazine": 6392, "▁talking": 6393, "▁موسم": 6394, "▁نشانہ": 6395, "do": 6396, "ئ": 6397, "▁illustration": 6398, "▁middle": 6399, "▁آپہنچے": 6400, "▁جماعتیں": 6401, "▁کنگن": 6402, "Alam": 6403, "نیک": 6404, "▁attractive": 6405, "▁glorious": 6406, "▁resolve": 6407, "▁spending": 6408, "▁threatened": 6409, "▁بتاد": 6410, "▁رومی": 6411, "▁قارون": 6412, "ity": 6413, "فرعون": 6414, "می": 6415, "▁hardened": 6416, "▁ساؤل": 6417, "▁پھیلائے": 6418, "▁۴۵": 6419, "f": 6420, "▁Hall": 6421, "▁confront": 6422, "▁hot": 6423, "▁ارتکاب": 6424, "▁دہشت": 6425, "▁نصاری": 6426, "▁More": 6427, "angels": 6428, "▁elder": 6429, "▁keys": 6430, "▁عوام": 6431, "▁Similarly": 6432, "▁acting": 6433, "▁captives": 6434, "▁car": 6435, "▁oppression": 6436, "▁بلائیں": 6437, "Worship": 6438, "rs": 6439, "اچھا": 6440, "▁abandoned": 6441, "▁importance": 6442, "▁request": 6443, "▁سہی": 6444, "▁سیاہی": 6445, "▁شناخت": 6446, "▁مصروف": 6447, "▁پتھروں": 6448, "▁atom": 6449, "▁entertainment": 6450, "▁برکتیں": 6451, "▁حسرت": 6452, "▁نسلوں": 6453, "▁پروا": 6454, "بڑی": 6455, "▁17:": 6456, "▁obligation": 6457, "▁purifie": 6458, "▁requital": 6459, "▁revives": 6460, "▁township": 6461, "▁قصد": 6462, "▁ڈریں": 6463, "Iesa": 6464, "طیع": 6465, "▁active": 6466, "▁bewitched": 6467, "▁harsh": 6468, "▁neglect": 6469, "▁realise": 6470, "▁suppose": 6471, "▁swore": 6472, "▁آزمایا": 6473, "▁امثا": 6474, "▁طےشدہ": 6475, "▁پھرنے": 6476, "▁Firon": 6477, "▁bed": 6478, "▁cool": 6479, "▁top": 6480, "▁کررہا": 6481, "▁Babylon": 6482, "▁immorality": 6483, "▁produces": 6484, "▁usually": 6485, "▁vengeance": 6486, "▁اختیارات": 6487, "▁زخم": 6488, "▁نمونے": 6489, "rate": 6490, "▁absence": 6491, "▁disbeliever": 6492, "▁scourge": 6493, "▁wast": 6494, "▁expected": 6495, "▁interested": 6496, "▁recit": 6497, "▁قیدی": 6498, "▁مانے": 6499, "▁مخلص": 6500, "▁ویسی": 6501, "▁گنا": 6502, "▁یشوع": 6503, "▁compress": 6504, "▁m": 6505, "▁prohibited": 6506, "▁نظروں": 6507, "▁نیچی": 6508, "gods": 6509, "▁comprehend": 6510, "▁فرمادو": 6511, "·": 6512, "▁Forgiver": 6513, "▁cultivate": 6514, "▁poured": 6515, "▁اندھیری": 6516, "▁جکڑ": 6517, "▁پطر": 6518, "R": 6519, "▁goals": 6520, "▁search": 6521, "▁sinner": 6522, "▁ام": 6523, "▁بیش": 6524, "▁ہموار": 6525, "ندھوں": 6526, "▁Archive": 6527, "▁wages": 6528, "▁شوہروں": 6529, "▁مقابل": 6530, "▁Master": 6531, "▁Two": 6532, "▁recognized": 6533, "▁spouse": 6534, "▁wipe": 6535, "▁اٹھ": 6536, "▁مچا": 6537, "aib": 6538, "▁band": 6539, "▁sacrifices": 6540, "▁اخبار": 6541, "▁ليے": 6542, "▁ٹکڑا": 6543, ";\"": 6544, "علم": 6545, "لہ": 6546, "▁5,": 6547, "▁engaged": 6548, "▁obligatory": 6549, "▁rent": 6550, "▁ترس": 6551, "▁جائیگا": 6552, "▁جما": 6553, "▁دکھاؤ": 6554, "▁فل": 6555, "▁پادری": 6556, "▁یوم": 6557, "our": 6558, "وؔع": 6559, "▁extract": 6560, "▁opposite": 6561, "▁teaches": 6562, "▁ڈالنا": 6563, "▁surface": 6564, "▁t": 6565, "▁wandering": 6566, "▁پابند": 6567, "▁پھیرا": 6568, "v": 6569, "▁Tar": 6570, "▁agreement": 6571, "▁deserve": 6572, "▁developed": 6573, "▁endurance": 6574, "▁exist": 6575, "▁finds": 6576, "▁horses": 6577, "▁rebelled": 6578, "مزید": 6579, "▁forbids": 6580, "▁press": 6581, "▁strange": 6582, "▁torn": 6583, "▁آمیز": 6584, "▁سائنس": 6585, "▁ستر": 6586, "▁موج": 6587, "U": 6588, "▁Ephesians": 6589, "▁haste": 6590, "▁issues": 6591, "▁آجاؤ": 6592, "▁آنسو": 6593, "▁ورزی": 6594, "بالخصوص": 6595, "ول": 6596, "▁healing": 6597, "▁wild": 6598, "▁افریقہ": 6599, "▁تبدیلیاں": 6600, "▁چالیس": 6601, "سن": 6602, "▁Ar": 6603, "▁discuss": 6604, "▁ؤ": 6605, "▁بت": 6606, "▁ستھری": 6607, "فرشتوں": 6608, "نماز": 6609, "یض": 6610, "▁Alone": 6611, "▁Nevertheless": 6612, "▁inherited": 6613, "▁seduce": 6614, "▁اندھیرے": 6615, "▁تقویت": 6616, "▁ستون": 6617, "▁lowest": 6618, "▁major": 6619, "▁protected": 6620, "▁sorcerer": 6621, "▁sperm": 6622, "▁یادگار": 6623, "▁یکتا": 6624, "Paradise": 6625, "▁آئیے": 6626, "▁توانائی": 6627, "▁روانہ": 6628, "▁Herald": 6629, "▁Men": 6630, "▁Please": 6631, "▁picture": 6632, "▁جھگڑالو": 6633, "▁دیکھئے": 6634, "▁عیال": 6635, "ment": 6636, "out": 6637, "▁Both": 6638, "▁sixth": 6639, "▁بیٹھنے": 6640, "▁حذف": 6641, "▁حلم": 6642, "▁خواه": 6643, "▁سطح": 6644, "▁سنبھال": 6645, "▁binding": 6646, "▁season": 6647, "▁دلائل": 6648, "▁زنا": 6649, "▁مادر": 6650, "▁معذرت": 6651, "▁ٹی": 6652, "القدس": 6653, "شمار": 6654, "▁Ka": 6655, "▁limited": 6656, "▁social": 6657, "▁امان": 6658, "▁مظاہرہ": 6659, "Muslims": 6660, "▁meal": 6661, "▁اکڑ": 6662, "▁کنگڈم": 6663, "incumbent": 6664, "دن": 6665, "ٹھنا": 6666, "▁34": 6667, "▁main": 6668, "▁حشر": 6669, "▁قطار": 6670, "▁قلم": 6671, "▁کرانے": 6672, "▁ہوگے": 6673, "بوڑھے": 6674, "▁looks": 6675, "▁sold": 6676, "▁watches": 6677, "▁ملت": 6678, "▁کنونشن": 6679, "Those": 6680, "▁compassionate": 6681, "▁dread": 6682, "▁explanation": 6683, "▁neck": 6684, "▁strikes": 6685, "▁داؤ": 6686, "▁ذ": 6687, "▁قائل": 6688, "▁کدھر": 6689, "▁کیجیئے": 6690, "▁﴿": 6691, "کہیں": 6692, "▁Living": 6693, "▁afflictive": 6694, "▁e": 6695, "▁برانچ": 6696, "▁سینے": 6697, "▁meat": 6698, "▁کڑک": 6699, "▁کہانیاں": 6700, "ؔ": 6701, "ساتھ": 6702, "▁baby": 6703, "▁sudden": 6704, "▁wings": 6705, "▁مطالبہ": 6706, "▁کرلیتے": 6707, "▁distressed": 6708, "▁forgave": 6709, "Praise": 6710, "aware": 6711, "سابقہ": 6712, "یہاں": 6713, "▁English": 6714, "▁Injeel": 6715, "▁ancestors": 6716, "▁improve": 6717, "▁reproach": 6718, "▁star": 6719, "مرتکب": 6720, "معبود": 6721, "▁cases": 6722, "▁clot": 6723, "▁court": 6724, "▁grapes": 6725, "▁herself": 6726, "▁milk": 6727, "▁جارہا": 6728, "▁ذل": 6729, "▁پردازی": 6730, "no": 6731, "تب": 6732, "جہاد": 6733, "▁Once": 6734, "▁bread": 6735, "▁hopes": 6736, "▁satisfaction": 6737, "▁unity": 6738, "▁الل": 6739, "▁قومیں": 6740, "▁لاش": 6741, "▁Doom": 6742, "▁Religion": 6743, "▁intercessor": 6744, "▁plenty": 6745, "▁آپکی": 6746, "▁پھول": 6747, "1": 6748, "▁Reckoning": 6749, "▁affected": 6750, "▁believeth": 6751, "▁mistake": 6752, "▁صادق": 6753, "▁فراموش": 6754, "▁گدھے": 6755, "▁ہفتہ": 6756, "after": 6757, "تنی": 6758, "کن": 6759, "▁Awake": 6760, "▁fly": 6761, "▁subservient": 6762, "▁چکھاتے": 6763, "fire": 6764, "نکو": 6765, "▁disdain": 6766, "▁plant": 6767, "▁resist": 6768, "▁بچھڑا": 6769, "▁راستبازی": 6770, "▁سیاسی": 6771, "▁مارنے": 6772, "▁کي": 6773, "▁ہوجاتی": 6774, "▁Oh": 6775, "▁شگاف": 6776, "▁علاقہ": 6777, "▁فرقے": 6778, "▁پیغامات": 6779, "ion": 6780, "جان": 6781, "⁠": 6782, "▁belonged": 6783, "▁reports": 6784, "▁urged": 6785, "▁worth": 6786, "▁تقاضا": 6787, "▁Little": 6788, "▁fields": 6789, "▁inflict": 6790, "▁limit": 6791, "▁جنوبی": 6792, "▁زبانیں": 6793, "▁فصل": 6794, "▁وسیلہ": 6795, "▁پھرتا": 6796, "ؤ": 6797, "ختہ": 6798, "▁Re": 6799, "▁orders": 6800, "▁درجات": 6801, "▁محافظ": 6802, "3⁄4": 6803, "▁eternally": 6804, "▁soldiers": 6805, "▁خاکسار": 6806, "▁مف": 6807, "▁پیشانی": 6808, "▁کوتاہی": 6809, "pleased": 6810, "دہانی": 6811, "سو": 6812, "▁2,": 6813, "▁neighbor": 6814, "▁parent": 6815, "▁personality": 6816, "▁شمال": 6817, "وہاں": 6818, "▁Africa": 6819, "▁Purity": 6820, "▁accomplished": 6821, "▁fourth": 6822, "▁gained": 6823, "▁دکھاتے": 6824, "▁ستھرا": 6825, "▁نکالنا": 6826, "▁پڑھنا": 6827, "▁پید": 6828, "▁finished": 6829, "▁madness": 6830, "▁آڑ": 6831, "▁Jonah": 6832, "▁purity": 6833, "▁خارج": 6834, "▁محتاجوں": 6835, "لوگو": 6836, "نفاق": 6837, "▁4,": 6838, "▁ends": 6839, "▁surety": 6840, "▁آپکڑا": 6841, "▁رویہ": 6842, "▁لوطؑ": 6843, "▁پناه": 6844, "we": 6845, "باره": 6846, "شیطان": 6847, "پروردگار": 6848, "▁Accept": 6849, "▁convention": 6850, "▁gains": 6851, "▁kindred": 6852, "▁space": 6853, "▁teacher": 6854, "▁ابدی": 6855, "▁بھرے": 6856, "▁ضرب": 6857, "▁فوت": 6858, "▁چھپاؤ": 6859, "انسان": 6860, "صرف": 6861, "گوئی": 6862, "▁Am": 6863, "▁articles": 6864, "▁obligations": 6865, "▁penitent": 6866, "▁سکھائے": 6867, "▁مشورے": 6868, "▁کرلیتا": 6869, "ive": 6870, "تہ": 6871, "▁centuries": 6872, "▁guilt": 6873, "▁واقعے": 6874, "▁وضع": 6875, "▁19.": 6876, "▁60": 6877, "▁Divinity": 6878, "▁Record": 6879, "▁Yea": 6880, "▁bright": 6881, "▁planned": 6882, "▁traveling": 6883, "▁باشندے": 6884, "▁راہیں": 6885, "▁surrounded": 6886, "▁whereat": 6887, "▁بھلی": 6888, "▁قلع": 6889, "▁ویب": 6890, "▁چڑھے": 6891, "M": 6892, "▁Hajj": 6893, "▁begins": 6894, "▁honorable": 6895, "▁instruction": 6896, "▁minister": 6897, "▁shadows": 6898, "▁specific": 6899, "▁ما": 6900, "▁Strong": 6901, "▁agreed": 6902, "▁restrained": 6903, "▁scheme": 6904, "▁supporters": 6905, "▁فنا": 6906, "▁مرض": 6907, "نسانوں": 6908, "▁Samuel": 6909, "▁finally": 6910, "▁intense": 6911, "▁unbelieving": 6912, "▁قلب": 6913, "▁Lam": 6914, "▁bless": 6915, "▁late": 6916, "▁refer": 6917, "▁خوار": 6918, "▁روتے": 6919, "▁گاہوں": 6920, "▁گراں": 6921, "حائل": 6922, "محیط": 6923, "▁\"(": 6924, "▁alternation": 6925, "▁assured": 6926, "▁cold": 6927, "▁despaired": 6928, "▁fornication": 6929, "▁member": 6930, "▁snatch": 6931, "▁آدھ": 6932, "▁جاگو": 6933, "▁شکست": 6934, "▁ہوتا۔": 6935, "▁یسع": 6936, "into": 6937, "▁Brother": 6938, "▁Joshua": 6939, "▁root": 6940, "▁thereupon": 6941, "▁دوپہر": 6942, "▁سامری": 6943, "▁چلائے": 6944, "▁گھنٹے": 6945, "Tar": 6946, "بھائی": 6947, "▁abiders": 6948, "▁ate": 6949, "▁charitable": 6950, "▁dedication": 6951, "▁hearken": 6952, "▁thereto": 6953, "▁travelled": 6954, "▁قطع": 6955, "▁نشین": 6956, "▁پکڑو": 6957, "▁کرنا۔": 6958, "▁compensation": 6959, "▁progress": 6960, "▁repel": 6961, "▁west": 6962, "▁جدائی": 6963, "▁قربان": 6964, "▁مسافر": 6965, "▁پڑو": 6966, "▁چکر": 6967, "آسمان": 6968, "▁areas": 6969, "▁bare": 6970, "▁fellows": 6971, "▁train": 6972, "▁voices": 6973, "▁جنون": 6974, "▁خبری": 6975, "▁فحش": 6976, "▁مطلع": 6977, "▁گناہگار": 6978, "بالیقین": 6979, "ستاد": 6980, "وعید": 6981, "▁association": 6982, "▁obvious": 6983, "▁olive": 6984, "▁shed": 6985, "▁wrought": 6986, "▁اثرات": 6987, "▁سلاطین": 6988, "▁فوائد": 6989, "▁مجرمین": 6990, "▁پھٹکار": 6991, "▁چٹان": 6992, "▁یحی": 6993, "Believe": 6994, "پرستی": 6995, "▁asks": 6996, "▁mosques": 6997, "▁unknown": 6998, "▁امی": 6999, "▁جسکا": 7000, "▁خوشحال": 7001, "▁ذوالقرنین": 7002, "▁لوڈ": 7003, "▁immoral": 7004, "▁ایجاد": 7005, "▁جنتی": 7006, "▁معقول": 7007, "vailed": 7008, "▁Sovereignty": 7009, "▁chastity": 7010, "▁easily": 7011, "▁encouragement": 7012, "▁exactly": 7013, "▁exult": 7014, "▁mental": 7015, "▁preference": 7016, "▁resources": 7017, "▁treatment": 7018, "▁بھٹکت": 7019, "▁حصوں": 7020, "▁والدہ": 7021, "▁گروپ": 7022, "فت": 7023, "▁beloved": 7024, "▁fluid": 7025, "▁forty": 7026, "▁pardoned": 7027, "▁repents": 7028, "▁slaughter": 7029, "▁suffice": 7030, "▁touches": 7031, "▁مستحکم": 7032, "ies": 7033, "▁associating": 7034, "▁shadow": 7035, "▁پٹی": 7036, "▁پیداوار": 7037, "▁چکھ": 7038, "▁division": 7039, "▁recent": 7040, "▁scatter": 7041, "▁stretch": 7042, "▁truths": 7043, "▁اطلاق": 7044, "▁بہنیں": 7045, "▁دھو": 7046, "▁معجزات": 7047, "▁J": 7048, "▁access": 7049, "▁defeat": 7050, "▁doubts": 7051, "▁lied": 7052, "▁repeat": 7053, "▁teachers": 7054, "▁territory": 7055, "▁truthfulness": 7056, "▁اطراف": 7057, "▁قطعی": 7058, "▁ماننا": 7059, "▁نفاق": 7060, "ent": 7061, "ھیڑ": 7062, "▁arguments": 7063, "▁forms": 7064, "▁preached": 7065, "▁قیدیوں": 7066, "▁مالدار": 7067, "▁ہوائیں": 7068, "▁21:": 7069, "▁achievement": 7070, "▁arrangement": 7071, "▁despised": 7072, "▁expressed": 7073, "▁palms": 7074, "▁shower": 7075, "▁slaying": 7076, "▁شیطانی": 7077, "▁فضول": 7078, "▁فعل": 7079, "forever": 7080, "گا": 7081, "▁confirm": 7082, "▁loyalty": 7083, "▁تفرقہ": 7084, "▁ضبط": 7085, "▁طلوع": 7086, "▁متنب": 7087, "▁میت": 7088, "▁چھڑا": 7089, "Lot": 7090, "▁Clearly": 7091, "▁air": 7092, "▁determination": 7093, "▁involves": 7094, "▁substance": 7095, "▁بلاؤ": 7096, "▁دیتا۔": 7097, "▁سونپ": 7098, "▁کاری": 7099, "موجود": 7100, "▁devised": 7101, "▁threaten": 7102, "▁شرارت": 7103, "G": 7104, "Nay": 7105, "▁literature": 7106, "▁quicken": 7107, "▁اٹھیں": 7108, "▁ذہنی": 7109, "▁سوکھ": 7110, "▁ٹھنڈا": 7111, "ce": 7112, "خوب": 7113, "مر": 7114, "▁10,": 7115, "▁Get": 7116, "▁L": 7117, "▁gaze": 7118, "▁honest": 7119, "▁pair": 7120, "▁personally": 7121, "▁اتری": 7122, "▁تحفہ": 7123, "▁دماغ": 7124, "▁پنڈلی": 7125, "▁چٹی": 7126, "▁۵۰": 7127, "ابراہیم": 7128, "مسلمانوں": 7129, "کام": 7130, "▁defeated": 7131, "▁distinct": 7132, "▁guards": 7133, "▁pleasant": 7134, "▁succession": 7135, "▁آؤں": 7136, "▁ذمےداری": 7137, "▁رک": 7138, "▁متنفس": 7139, "▁مریض": 7140, "▁نگرا": 7141, "▁پن": 7142, "4": 7143, "▁continues": 7144, "▁previous": 7145, "▁اتارتے": 7146, "▁احرام": 7147, "▁جگہوں": 7148, "▁مانگیں": 7149, "▁blindly": 7150, "▁missionary": 7151, "▁noted": 7152, "▁tomorrow": 7153, "▁مہم": 7154, "آسمانی": 7155, "▁Her": 7156, "▁Without": 7157, "▁bracelets": 7158, "▁repentant": 7159, "▁بجھا": 7160, "▁دیانتدار": 7161, "▁سویر": 7162, "▁Obey": 7163, "▁medical": 7164, "▁notice": 7165, "▁sentence": 7166, "▁اجنبی": 7167, "▁عملی": 7168, "▁ناشکرے": 7169, "▁Forgive": 7170, "▁approached": 7171, "▁assemble": 7172, "▁behave": 7173, "▁perceived": 7174, "▁نگران": 7175, "▁Recompense": 7176, "▁beast": 7177, "▁bent": 7178, "▁contrast": 7179, "▁err": 7180, "▁mad": 7181, "ہدایت": 7182, "▁bondman": 7183, "▁challenges": 7184, "▁entirely": 7185, "▁grieved": 7186, "▁shake": 7187, "▁trusts": 7188, "▁tryst": 7189, "▁تمھار": 7190, "▁شدت": 7191, "▁۴۲": 7192, "ar": 7193, "مہاجرین": 7194, "نکا": 7195, "▁W": 7196, "▁effective": 7197, "▁بھیجا۔": 7198, "▁بےخبر": 7199, "▁صفت": 7200, "▁غربت": 7201, "▁قوانین": 7202, "▁قیمتی": 7203, "▁ملنا": 7204, "▁کفارہ": 7205, "▁didn": 7206, "▁disregard": 7207, "▁silent": 7208, "▁willeth": 7209, "▁بیل": 7210, "▁عبارت": 7211, "time": 7212, "نگ": 7213, "▁100": 7214, "▁14,": 7215, "▁Cave": 7216, "▁Days": 7217, "▁آرہ": 7218, "▁بننا": 7219, "▁خاوند": 7220, "▁کھالیں": 7221, "▁evils": 7222, "▁remaining": 7223, "▁returns": 7224, "▁بو": 7225, "▁بیاہ": 7226, "▁بیٹھو": 7227, "▁تراش": 7228, "Tafsir": 7229, "molten": 7230, "دوسرے": 7231, "طاری": 7232, "▁acquainted": 7233, "▁anguish": 7234, "▁arrogantly": 7235, "▁reaching": 7236, "▁reduce": 7237, "▁swine": 7238, "▁valuable": 7239, "▁الا": 7240, "▁برآمد": 7241, "▁زلزلہ": 7242, "دیا": 7243, "▁envy": 7244, "▁failure": 7245, "▁visits": 7246, "▁بڑھتا": 7247, "▁بڑھتے": 7248, "جلتے": 7249, "▁War": 7250, "▁accuse": 7251, "▁habitations": 7252, "▁poet": 7253, "▁pregnant": 7254, "▁remit": 7255, "▁sand": 7256, "▁soil": 7257, "▁tempted": 7258, "▁داروغہ": 7259, "▁شرمگاہ": 7260, "▁گھران": 7261, "ish": 7262, "ردگرد": 7263, "علیہم": 7264, "▁Mim": 7265, "▁catch": 7266, "▁covers": 7267, "▁emigrated": 7268, "▁occur": 7269, "▁overlook": 7270, "▁shape": 7271, "▁جہن": 7272, "▁خزانوں": 7273, "▁سنائیں": 7274, "▁شرکت": 7275, "▁مرتب": 7276, "▁پرلے": 7277, "▁appears": 7278, "▁falsely": 7279, "▁growing": 7280, "▁hastened": 7281, "▁km": 7282, "▁originates": 7283, "▁جہنمی": 7284, "▁درآنحالی": 7285, "▁راستباز": 7286, "▁سادہ": 7287, "▁ناموں": 7288, "▁کنجیاں": 7289, "Alas": 7290, "▁confident": 7291, "▁conscious": 7292, "▁multitude": 7293, "▁section": 7294, "▁منعقد": 7295, "▁devout": 7296, "▁divorced": 7297, "▁equivalent": 7298, "▁guiding": 7299, "▁haughty": 7300, "▁modest": 7301, "▁publications": 7302, "▁اناج": 7303, "▁ہنستے": 7304, "▁Free": 7305, "▁protecting": 7306, "▁ties": 7307, "▁موبائل": 7308, "▁مکھی": 7309, "▁نباتات": 7310, "▁کٹ": 7311, "غض": 7312, "گے": 7313, "▁Originator": 7314, "▁description": 7315, "▁exact": 7316, "▁girls": 7317, "▁recognise": 7318, "▁tender": 7319, "▁tyrant": 7320, "▁walks": 7321, "▁خو": 7322, "▁ستائش": 7323, "▁عالی": 7324, "▁فون": 7325, "Glory": 7326, "غور": 7327, "▁impatient": 7328, "▁points": 7329, "▁studies": 7330, "▁پہن": 7331, "▁H": 7332, "▁Madyan": 7333, "▁Mother": 7334, "▁abuse": 7335, "▁doeth": 7336, "▁piece": 7337, "▁substitute": 7338, "▁برائے": 7339, "▁پڑھتا": 7340, "▁گھمنڈ": 7341, "ul": 7342, "▁7,": 7343, "▁basic": 7344, "▁grown": 7345, "▁particular": 7346, "▁portents": 7347, "▁totally": 7348, "▁قدرتی": 7349, "لو": 7350, "ہمیں": 7351, "▁Zechariah": 7352, "▁purposes": 7353, "▁تن": 7354, "▁طلبگار": 7355, "▁ڈرانا": 7356, "بڑے": 7357, "نوح": 7358, "▁Matt": 7359, "▁repented": 7360, "▁skies": 7361, "▁عین": 7362, "Mary": 7363, "about": 7364, "▁#": 7365, "▁attended": 7366, "▁blow": 7367, "▁fat": 7368, "▁invites": 7369, "▁offerings": 7370, "▁pattern": 7371, "▁studied": 7372, "▁trained": 7373, "▁فس": 7374, "▁مقبول": 7375, "▁واپسی": 7376, "▁Elijah": 7377, "▁allows": 7378, "▁crooked": 7379, "▁gathering": 7380, "▁principle": 7381, "▁roast": 7382, "▁shepherd": 7383, "▁stages": 7384, "▁اقسام": 7385, "▁پیراگراف": 7386, "▁چھوڑنے": 7387, "□": 7388, "کس": 7389, "▁exclusively": 7390, "▁fitting": 7391, "▁multiplied": 7392, "▁vines": 7393, "▁سائبان": 7394, "جائز": 7395, "▁brief": 7396, "▁location": 7397, "▁lodging": 7398, "▁refrain": 7399, "▁فیصل": 7400, "▁یونس": 7401, "Him": 7402, "ayb": 7403, "w": 7404, "جنگ": 7405, "مصر": 7406, "منافق": 7407, "▁providing": 7408, "▁separated": 7409, "▁آثار": 7410, "▁انگیزی": 7411, "▁بنادے": 7412, "▁جاؤگے۔": 7413, "▁ذر": 7414, "▁صدقات": 7415, "\":": 7416, "▁19:": 7417, "▁achieve": 7418, "▁cleanse": 7419, "▁dealing": 7420, "▁stopped": 7421, "▁اتارتا": 7422, "▁فرما۔": 7423, "▁مانگی": 7424, "▁مقتول": 7425, "▁نواز": 7426, "▁پکی": 7427, "پسند": 7428, "▁p": 7429, "▁regards": 7430, "▁repay": 7431, "▁تماشا": 7432, "▁معرفت": 7433, "▁Put": 7434, "▁boat": 7435, "▁gentle": 7436, "▁priest": 7437, "▁resurrect": 7438, "▁scale": 7439, "▁tax": 7440, "▁برتری": 7441, "▁تاخیر": 7442, "▁خدایا": 7443, "▁خم": 7444, "▁دان": 7445, "▁ڈھونڈ": 7446, "ده": 7447, "▁City": 7448, "▁released": 7449, "▁sanctuary": 7450, "▁sharing": 7451, "▁جدید": 7452, "▁سکھائی": 7453, "▁عید": 7454, "Keep": 7455, "اولاد": 7456, "تذکرہ": 7457, "▁Forgiveness": 7458, "▁bought": 7459, "▁empty": 7460, "▁retreat": 7461, "▁بھید": 7462, "▁مواد": 7463, "Tell": 7464, "ver": 7465, "▁Home": 7466, "▁confused": 7467, "▁contend": 7468, "▁hills": 7469, "▁lend": 7470, "▁tradition": 7471, "▁سکھاتا": 7472, "▁کرایا": 7473, "▁کمپیوٹر": 7474, "▁Majesty": 7475, "▁leader": 7476, "▁miserable": 7477, "▁thank": 7478, "▁بھاگنے": 7479, "▁خاموش": 7480, "▁ٹھنڈک": 7481, "▁پہنچائی": 7482, ")!\"": 7483, "روں": 7484, "عظیم": 7485, "ٹ": 7486, "▁20.": 7487, "▁Rome": 7488, "▁dates": 7489, "▁earns": 7490, "▁flood": 7491, "▁pagan": 7492, "▁revenge": 7493, "▁ruling": 7494, "▁shun": 7495, "▁therefor": 7496, "▁مستقل": 7497, "▁پڑوسی": 7498, "▁چچا": 7499, "▁ہوسکے": 7500, "▁یار": 7501, "جر": 7502, "▁Bliss": 7503, "▁arrives": 7504, "▁disposed": 7505, "▁پلا": 7506, "B": 7507, "▁South": 7508, "▁includes": 7509, "▁merchandise": 7510, "▁rendered": 7511, "▁situations": 7512, "▁آمنے": 7513, "▁امکان": 7514, "▁روکنا": 7515, "▁سنایا": 7516, "▁شخصیت": 7517, "▁مفصل": 7518, "▁پانچو": 7519, "▁dost": 7520, "▁pasture": 7521, "▁punishes": 7522, "▁treacherous": 7523, "▁بھیجو": 7524, "▁صورتیں": 7525, "▁غلاف": 7526, "▁نکالو": 7527, "▁ہیبت": 7528, "disbelievers": 7529, "▁11,": 7530, "▁35": 7531, "▁York": 7532, "▁bequest": 7533, "▁confirms": 7534, "▁huge": 7535, "▁included": 7536, "▁shaken": 7537, "▁زبانی": 7538, "▁نظریات": 7539, "▁پوج": 7540, "ردے": 7541, "شمن": 7542, "▁busy": 7543, "▁fountains": 7544, "▁student": 7545, "▁اچک": 7546, "▁بدر": 7547, "▁بمع": 7548, "▁نشہ": 7549, "▁پکڑیں": 7550, "▁کمال": 7551, "Father": 7552, "ah": 7553, "▁gratitude": 7554, "▁society": 7555, "▁spite": 7556, "▁stiff": 7557, "▁warns": 7558, "▁خاتون": 7559, "▁مایوسی": 7560, "▁مع": 7561, "▁واچ": 7562, "مرنے": 7563, "▁assume": 7564, "▁decrees": 7565, "▁garment": 7566, "▁hostility": 7567, "▁افتراء": 7568, "▁اٹکل": 7569, "▁دوزخیوں": 7570, "▁شہد": 7571, "▁فوجیں": 7572, "▁مقر": 7573, "▁کفران": 7574, "▁یورپ": 7575, "\";": 7576, "▁approaches": 7577, "▁humiliated": 7578, "▁justified": 7579, "▁raising": 7580, "▁reduced": 7581, "▁vow": 7582, "▁دھمکی": 7583, "▁شامت": 7584, "▁گھا": 7585, "its": 7586, "ہائے": 7587, "▁honored": 7588, "▁اٹھاتے": 7589, "▁ایلیا": 7590, "▁شکرگزاری": 7591, "▁گھنے": 7592, "▁Sad": 7593, "▁arrival": 7594, "▁foremost": 7595, "▁gets": 7596, "▁handle": 7597, "▁hospitality": 7598, "▁lusts": 7599, "▁powers": 7600, "▁sworn": 7601, "▁thereon": 7602, "▁zeal": 7603, "▁قربانیاں": 7604, "ٹھ": 7605, "ہمیشہ": 7606, "▁cradle": 7607, "▁maidens": 7608, "▁maybe": 7609, "▁قوی": 7610, "▁مثبت": 7611, "▁ended": 7612, "▁herald": 7613, "▁murder": 7614, "▁originated": 7615, "▁succeeded": 7616, "▁بردار": 7617, "▁سونا": 7618, "▁شیش": 7619, "believers": 7620, "ling": 7621, "ted": 7622, "گاہ": 7623, "▁70": 7624, "▁Warning": 7625, "▁confusion": 7626, "▁contribute": 7627, "▁designed": 7628, "▁requires": 7629, "▁بکھر": 7630, "▁رہیں۔": 7631, "▁متحد": 7632, "انگیز": 7633, "یافتہ": 7634, "▁Answer": 7635, "▁mansions": 7636, "▁whereby": 7637, "▁برگشت": 7638, "▁جتا": 7639, "▁لگاؤ": 7640, "▁چالیں": 7641, "day": 7642, "▁appearance": 7643, "▁cope": 7644, "▁elderly": 7645, "▁forbade": 7646, "▁probably": 7647, "▁process": 7648, "▁بہنوں": 7649, "▁لگانا": 7650, "beneficent": 7651, "▁Decision": 7652, "▁Really": 7653, "▁breaks": 7654, "▁consult": 7655, "▁سودا": 7656, "▁ورلڈ": 7657, "▁کر۔": 7658, "),-": 7659, "انجام": 7660, "قیمت": 7661, "ناگہاں": 7662, "نفس": 7663, "▁apparent": 7664, "▁assert": 7665, "▁caught": 7666, "▁disciple": 7667, "▁reclining": 7668, "▁reconciliation": 7669, "▁vile": 7670, "▁wayfarer": 7671, "▁جھانک": 7672, "▁دانہ": 7673, "▁صندوق": 7674, "▁منٹ": 7675, "▁نادانی": 7676, "▁ہوتیں": 7677, "▁energy": 7678, "▁immortal": 7679, "▁legs": 7680, "▁religions": 7681, "▁scoff": 7682, "▁میکا": 7683, "N": 7684, "اسلام": 7685, "▁aloud": 7686, "▁delusion": 7687, "▁factions": 7688, "▁livestock": 7689, "▁military": 7690, "▁حرم": 7691, "▁حلیم": 7692, "▁رفتار": 7693, "▁زاد": 7694, "▁مثلا": 7695, "▁مندوں": 7696, "▁موجودگی": 7697, "▁ڈھال": 7698, "▁کاپی": 7699, "▁کمر": 7700, "great": 7701, "▁Judge": 7702, "▁afford": 7703, "▁inscribed": 7704, "▁slip": 7705, "▁رکھتے۔": 7706, "▁عیسائی": 7707, "▁لڑے": 7708, "my": 7709, "دیتا": 7710, "نازل": 7711, "▁Earth": 7712, "▁Sovereign": 7713, "▁Wait": 7714, "▁adopted": 7715, "▁announce": 7716, "▁conferred": 7717, "▁intercourse": 7718, "▁resolved": 7719, "▁supporter": 7720, "▁برتنے": 7721, "▁جاسکتی": 7722, "▁رکاوٹ": 7723, "▁فر": 7724, "▁مولی": 7725, "▁وسائل": 7726, "▁ڈوبنے": 7727, ")].": 7728, "▁blamed": 7729, "▁departed": 7730, "▁deprived": 7731, "▁joyful": 7732, "▁آگاہی": 7733, "▁اچھائی": 7734, "▁بتاتی": 7735, "▁12,": 7736, "▁22:": 7737, "▁demonstrate": 7738, "▁entering": 7739, "▁posterity": 7740, "▁آباء": 7741, "▁تعمیل": 7742, "▁حقائق": 7743, "▁رقم": 7744, "▁زمینی": 7745, "▁غالبا": 7746, "▁فراخ": 7747, "▁ڈوب": 7748, "Sufficient": 7749, "org": 7750, "خانہ": 7751, "▁21.": 7752, "▁Yeah": 7753, "▁abased": 7754, "▁fifth": 7755, "▁invoked": 7756, "▁pre": 7757, "▁بھولے": 7758, "▁خبیث": 7759, "▁روحیں": 7760, "▁وابست": 7761, "ڑا": 7762, "▁Ourselves": 7763, "▁Seer": 7764, "▁letters": 7765, "▁risk": 7766, "▁بینڈ": 7767, "▁خد": 7768, "▁دوڑتا": 7769, "▁کمانڈ": 7770, "▁یاددہانی": 7771, "Were": 7772, "جلاس": 7773, "▁disputing": 7774, "▁doubled": 7775, "▁idle": 7776, "▁l": 7777, "▁munificence": 7778, "▁sex": 7779, "▁stands": 7780, "▁انکا": 7781, "▁حلق": 7782, "him": 7783, "میرا": 7784, "▁Ta": 7785, "▁assistance": 7786, "▁behavior": 7787, "▁box": 7788, "▁details": 7789, "▁devising": 7790, "▁effects": 7791, "▁nearby": 7792, "▁object": 7793, "▁انگریزی": 7794, "▁عموما": 7795, "▁منصوبہ": 7796, "▁ویڈیو": 7797, "▁کناروں": 7798, "Give": 7799, "`": 7800, "یقین": 7801, "▁Catholic": 7802, "▁Memorial": 7803, "▁carries": 7804, "▁chains": 7805, "▁communication": 7806, "▁destitute": 7807, "▁discreet": 7808, "▁ought": 7809, "▁retain": 7810, "▁رویا": 7811, "\",": 7812, "اختیار": 7813, "▁plainly": 7814, "▁ran": 7815, "▁التجا": 7816, "▁اندھیرا": 7817, "▁تواریخ": 7818, "▁چورا": 7819, "خبری": 7820, "وا": 7821, "▁Descendants": 7822, "▁accursed": 7823, "▁greet": 7824, "▁minutes": 7825, "▁بہرہ": 7826, "▁معاشر": 7827, "▁مہینہ": 7828, "پانی": 7829, "▁drawing": 7830, "▁erring": 7831, "▁march": 7832, "▁meanings": 7833, "▁perdition": 7834, "▁persecuted": 7835, "▁purer": 7836, "▁shared": 7837, "▁slaughtered": 7838, "▁برادری": 7839, "▁جیون": 7840, "▁رونق": 7841, "▁مسلم": 7842, "▁چھٹکارا": 7843, "Aware": 7844, "Follow": 7845, "palms": 7846, "▁crimes": 7847, "▁emotional": 7848, "▁hamstr": 7849, "▁heal": 7850, "▁mocking": 7851, "▁plus": 7852, "▁useful": 7853, "▁احوال": 7854, "▁بداخلاق": 7855, "▁جانتی": 7856, "▁لمبے": 7857, "▁نحو": 7858, "▁چرواہے": 7859, "▁کھولے": 7860, "▁ہوگیا۔": 7861, "z": 7862, "طمع": 7863, "گھر": 7864, "▁Europe": 7865, "▁beneficial": 7866, "▁closed": 7867, "▁conclusion": 7868, "▁ingratitude": 7869, "▁جاکر": 7870, "▁والیوں": 7871, "▁ہلک": 7872, "ابھی": 7873, "دی": 7874, "▁bowed": 7875, "▁overseer": 7876, "▁transgresses": 7877, "▁بیٹھتے": 7878, "▁تری": 7879, "▁تکب": 7880, "▁دہن": 7881, "▁ناانصافی": 7882, "▁۳۹": 7883, "know": 7884, "احکام": 7885, "▁Family": 7886, "▁Work": 7887, "▁detailed": 7888, "▁lords": 7889, "▁publicly": 7890, "▁لگے۔": 7891, "▁نفیس": 7892, "▁ہمسر": 7893, "▁afternoon": 7894, "▁experiences": 7895, "▁greed": 7896, "▁migrated": 7897, "▁rocks": 7898, "▁straying": 7899, "▁انگیز": 7900, "▁بھیجیں": 7901, "▁جیل": 7902, "▁دلانے": 7903, "▁دیگا": 7904, "▁رہائی": 7905, "▁زوجہ": 7906, "▁سور": 7907, "▁مملوک": 7908, "▁هيں": 7909, "▁پلٹائ": 7910, "▁ڈراؤ": 7911, "▁ہوئے۔": 7912, "▁ہوگئے۔": 7913, "حواریوں": 7914, "روز": 7915, "سموں": 7916, "ڑوں": 7917, "▁imagined": 7918, "▁بچھونا": 7919, "▁خور": 7920, "▁دغا": 7921, "▁سرمایہ": 7922, "▁فرعونیوں": 7923, "▁پوشی": 7924, "▁کھیت": 7925, "none": 7926, "right": 7927, "بیک": 7928, "حیائی": 7929, "قدم": 7930, "▁Everyone": 7931, "▁advise": 7932, "▁bowing": 7933, "▁اٹھتے": 7934, "▁بیکار": 7935, "▁دلائی": 7936, "▁ستا": 7937, "▁مختار": 7938, "▁ملین": 7939, "سلئے": 7940, "شامل": 7941, "▁Ishaq": 7942, "▁expose": 7943, "▁gradually": 7944, "▁practise": 7945, "▁unclean": 7946, "▁نظریے": 7947, "▁پوچھنا": 7948, "▁File": 7949, "▁closely": 7950, "▁confirmed": 7951, "▁fed": 7952, "▁prosperity": 7953, "▁smooth": 7954, "▁watchful": 7955, "▁ازدواج": 7956, "▁جانی": 7957, "▁طواف": 7958, "▁لوح": 7959, "▁Psalms": 7960, "▁attending": 7961, "▁drinks": 7962, "▁spare": 7963, "▁upper": 7964, "▁اختلافات": 7965, "▁توڑنے": 7966, "▁حتی": 7967, "▁کریم": 7968, "▁ہد": 7969, "Fear": 7970, "ur": 7971, "▁Note": 7972, "▁Saying": 7973, "▁possession": 7974, "▁residence": 7975, "▁supplicate": 7976, "▁wholesome": 7977, "▁آقا": 7978, "▁تھسلنیکیو": 7979, "▁فرقہ": 7980, "▁نبو": 7981, "F": 7982, "▁abomination": 7983, "▁mosque": 7984, "▁داغ": 7985, "▁مبشر": 7986, "▁پیشکش": 7987, "On": 7988, "own": 7989, "فیف": 7990, "▁Don": 7991, "▁abundantly": 7992, "▁overwhelmed": 7993, "▁supplication": 7994, "▁اختتام": 7995, "▁رسائی": 7996, "▁فوری": 7997, "▁نہر": 7998, "▁کیلئے۔": 7999, "6": 8000, "such": 8001, "ہٴ": 8002, "▁Mankind": 8003, "▁descends": 8004, "▁disgraced": 8005, "▁drown": 8006, "▁loads": 8007, "▁ruler": 8008, "▁بندر": 8009, "▁ساختہ": 8010, "▁طعن": 8011, "▁چاہی": 8012, "▁کسان": 8013, "▁۶۰": 8014, "ia": 8015, "▁Philippians": 8016, "▁Seek": 8017, "▁design": 8018, "▁difficulties": 8019, "▁dying": 8020, "▁endured": 8021, "▁win": 8022, "▁فرمائیے": 8023, "▁کنیزوں": 8024, "▁گرے": 8025, "سمجھ": 8026, "▁Wi": 8027, "▁containing": 8028, "▁peaceful": 8029, "▁witnessing": 8030, "▁بہانے": 8031, "▁نوشتہ": 8032, "▁وقف": 8033, "▁ہولناک": 8034, "▁16,": 8035, "▁changing": 8036, "▁healthy": 8037, "▁illness": 8038, "▁oppress": 8039, "▁straitened": 8040, "▁won": 8041, "▁لہر": 8042, "▁متفرق": 8043, "▁کف": 8044, "▁۴۱": 8045, "should": 8046, "▁23.": 8047, "▁marks": 8048, "▁احتیاط": 8049, "▁روت": 8050, "▁صفات": 8051, "▁فدی": 8052, "▁فن": 8053, "▁پرانی": 8054, "لوگ": 8055, "▁boys": 8056, "▁creed": 8057, "▁fingers": 8058, "▁height": 8059, "▁holding": 8060, "▁rules": 8061, "▁seated": 8062, "▁shining": 8063, "▁shout": 8064, "▁thirst": 8065, "▁اعزاز": 8066, "▁بدلتا": 8067, "▁سرگوشیاں": 8068, "▁کہانی": 8069, "Mohammed": 8070, "é": 8071, "رات": 8072, "ضرور": 8073, "نام": 8074, "▁Files": 8075, "▁burdened": 8076, "▁mail": 8077, "▁parables": 8078, "▁properly": 8079, "▁satisfy": 8080, "▁size": 8081, "▁striking": 8082, "▁troubled": 8083, "▁امیر": 8084, "▁اوربے": 8085, "▁سہارا": 8086, "▁سیراب": 8087, "▁لوتھڑ": 8088, "▁موڑے": 8089, "▁ٹھہرائے": 8090, "▁گند": 8091, "um": 8092, "رحمت": 8093, "▁Find": 8094, "▁Isa": 8095, "▁Promise": 8096, "▁bank": 8097, "▁mustered": 8098, "▁practices": 8099, "▁sunrise": 8100, "▁آئيں": 8101, "▁ابتداء": 8102, "▁الواقع": 8103, "▁انٹرنیٹ": 8104, "▁سڑک": 8105, "▁عجمی": 8106, "▁مواخذ": 8107, "▁ٹھیرا": 8108, "▁پھیلایا": 8109, "مکہ": 8110, "▁School": 8111, "▁Time": 8112, "▁easier": 8113, "▁essential": 8114, "▁fun": 8115, "▁rehearsed": 8116, "▁survive": 8117, "▁ارکان": 8118, "▁روکیں": 8119, "▁سنے": 8120, "▁صالحی": 8121, "▁فوجوں": 8122, "▁highly": 8123, "▁marked": 8124, "▁normal": 8125, "▁سرگرم": 8126, "▁سکھات": 8127, "▁سیکھیں": 8128, "▁متفق": 8129, "▁منصوب": 8130, "▁گائیں": 8131, "خواہ": 8132, "کف": 8133, "گہرے": 8134, "▁Full": 8135, "▁Out": 8136, "▁anxiety": 8137, "▁expound": 8138, "▁pioneers": 8139, "▁خطاکار": 8140, "▁رہائش": 8141, "▁قضا": 8142, "▁کنویں": 8143, "mention": 8144, "اتے": 8145, "▁Aad": 8146, "▁Honourable": 8147, "▁abroad": 8148, "▁anxious": 8149, "▁disown": 8150, "▁walked": 8151, "▁اڑانے": 8152, "▁جل": 8153, "▁خطائیں": 8154, "▁معاون": 8155, "▁مہارت": 8156, "▁پور": 8157, "are": 8158, "ism": 8159, "▁arranged": 8160, "▁claimed": 8161, "▁plotting": 8162, "▁reported": 8163, "▁skin": 8164, "▁subdued": 8165, "▁wool": 8166, "▁wrongs": 8167, "▁پیپ": 8168, "].’": 8169, "ch": 8170, "▁total": 8171, "▁آجاتا": 8172, "▁برادران": 8173, "▁قہر": 8174, "▁پک": 8175, "▁چشم": 8176, "▁aunts": 8177, "▁consideration": 8178, "▁copy": 8179, "▁dignity": 8180, "▁meditate": 8181, "▁stress": 8182, "▁دہ": 8183, "▁سکی": 8184, "▁لازمی": 8185, "Gabriel": 8186, "ہٹ": 8187, "▁sounded": 8188, "▁برخاست": 8189, "▁دبے": 8190, "▁رعب": 8191, "▁شہوت": 8192, "▁غذا": 8193, "▁لگاتار": 8194, "▁مندی": 8195, "▁گنجائش": 8196, "▁Sea": 8197, "▁booty": 8198, "▁extravagant": 8199, "▁harmful": 8200, "▁thinks": 8201, "▁weeping": 8202, "▁پہنچتے": 8203, "▁کلومیٹر": 8204, "▁گورننگ": 8205, "3": 8206, "el": 8207, "ازیں": 8208, "▁Young": 8209, "▁creating": 8210, "▁determine": 8211, "▁glass": 8212, "▁password": 8213, "▁prays": 8214, "▁quick": 8215, "▁roads": 8216, "▁thrust": 8217, "▁unique": 8218, "▁wonders": 8219, "▁اپن": 8220, "▁تنے": 8221, "▁سستی": 8222, "▁موجودہ": 8223, "▁ہوچکے": 8224, "انداز": 8225, "▁demons": 8226, "▁fit": 8227, "▁music": 8228, "▁obstinate": 8229, "▁perfected": 8230, "▁thunder": 8231, "▁worthless": 8232, "▁بندی": 8233, "▁بٹھا": 8234, "▁فارغ": 8235, "▁نصب": 8236, "▁کوششوں": 8237, "▁کھجوریں": 8238, "▁کہاوت": 8239, "let": 8240, "▁Land": 8241, "▁Taste": 8242, "▁arise": 8243, "▁crushed": 8244, "▁portent": 8245, "▁کلاس": 8246, "off": 8247, "partners": 8248, "رد": 8249, "▁feels": 8250, "▁حجر": 8251, "▁سچائیوں": 8252, "Should": 8253, "دان": 8254, "کہا": 8255, "▁gently": 8256, "▁rejects": 8257, "▁تلف": 8258, "▁مخاطب": 8259, "▁کیجئے۔": 8260, "▁۴۳": 8261, "بستہ": 8262, "بن": 8263, "تورات": 8264, "گناہ": 8265, "▁breaking": 8266, "▁insolence": 8267, "▁mature": 8268, "▁preserved": 8269, "▁watered": 8270, "▁امتیاز": 8271, "▁باڈی": 8272, "▁زیاں": 8273, "▁مرسلین": 8274, "▁نکلنا": 8275, "▁یو": 8276, "بار": 8277, "▁distinguish": 8278, "▁doomed": 8279, "▁fatigue": 8280, "▁population": 8281, "▁seventy": 8282, "▁womb": 8283, "▁ارے": 8284, "▁جالوت": 8285, "▁رکھتا۔": 8286, "▁ریت": 8287, "▁منسو": 8288, "▁ٹھٹھا": 8289, "▁پہنچائیں": 8290, "▁گزارنے": 8291, "▁گھبرا": 8292, "how": 8293, "باتوں": 8294, "▁greatness": 8295, "▁moves": 8296, "responsibilities": 8297, "مجھے": 8298, "ٹھایا": 8299, "▁3⁄4": 8300, "▁circuit": 8301, "▁encouraging": 8302, "▁exclaimed": 8303, "▁kinsmen": 8304, "▁plague": 8305, "▁roof": 8306, "▁rose": 8307, "▁بناوٹ": 8308, "▁بولیں": 8309, "▁مذاہب": 8310, "▁نصف": 8311, "▁ہوسکتی": 8312, "\"?": 8313, "People": 8314, "eclining": 8315, "▁Besides": 8316, "▁additional": 8317, "▁alter": 8318, "▁drove": 8319, "▁ilaha": 8320, "▁opposed": 8321, "▁rear": 8322, "▁tests": 8323, "▁thunderbolt": 8324, "▁touching": 8325, "▁بھاگت": 8326, "▁تند": 8327, "▁خوشبو": 8328, "▁عرب": 8329, "▁منقطع": 8330, "▁نیچا": 8331, "لفت": 8332, "▁acknowledge": 8333, "▁clothes": 8334, "▁forbearing": 8335, "▁prospect": 8336, "▁respited": 8337, "▁rush": 8338, "▁undeserved": 8339, "▁ابر": 8340, "▁دلچسپ": 8341, "▁دوہرا": 8342, "▁زنجیر": 8343, "▁محدود": 8344, "Travel": 8345, "تارے": 8346, "▁betray": 8347, "▁divert": 8348, "▁incurred": 8349, "▁mud": 8350, "▁shaped": 8351, "▁spared": 8352, "▁summoned": 8353, "▁weeks": 8354, "▁بازار": 8355, "▁باندھنے": 8356, "▁جلوہ": 8357, "▁خطاؤں": 8358, "ھیں": 8359, "▁variety": 8360, "▁تفویض": 8361, "خلیفہ": 8362, "▁amends": 8363, "▁intimate": 8364, "▁invisible": 8365, "▁receives": 8366, "▁خر": 8367, "▁دوڑے": 8368, "Hearer": 8369, "▁concluded": 8370, "▁infidelity": 8371, "▁react": 8372, "▁آب": 8373, "▁آوازیں": 8374, "▁براڈ": 8375, "▁بڑھو": 8376, "▁تاک": 8377, "▁سنائے": 8378, "▁شاخ": 8379, "▁کیفیت": 8380, "ہیہ": 8381, "▁Blessings": 8382, "▁Council": 8383, "▁Send": 8384, "▁aided": 8385, "▁fruitage": 8386, "▁lips": 8387, "▁پشیمان": 8388, "am": 8389, "bah": 8390, "راد": 8391, "▁amusement": 8392, "▁barred": 8393, "▁befriend": 8394, "▁belonging": 8395, "▁emerge": 8396, "▁madman": 8397, "▁pointed": 8398, "▁viewed": 8399, "▁whil": 8400, "▁دولتمند": 8401, "▁طعنہ": 8402, "▁فوجی": 8403, "▁ٹھہراؤ": 8404, "▁کردیے": 8405, "▁‘‘": 8406, "false": 8407, "ٓ": 8408, "▁Cor": 8409, "▁Questions": 8410, "▁counted": 8411, "▁deception": 8412, "▁expiation": 8413, "▁habitation": 8414, "▁invitation": 8415, "▁overtakes": 8416, "▁shield": 8417, "▁stage": 8418, "▁ultimate": 8419, "▁دیہاتی": 8420, "▁لکھیں": 8421, "▁مفہوم": 8422, "▁پوچھئے": 8423, "▁ہڈی": 8424, "برے": 8425, "▁Anyone": 8426, "▁Body": 8427, "▁caring": 8428, "▁computer": 8429, "▁confirmation": 8430, "▁cross": 8431, "▁particularly": 8432, "▁strives": 8433, "▁لیں۔": 8434, "Solomon": 8435, "▁Options": 8436, "▁Salat": 8437, "▁Zakat": 8438, "▁anot": 8439, "▁aspects": 8440, "▁assurance": 8441, "▁discovered": 8442, "▁recently": 8443, "▁turneth": 8444, "▁الہام": 8445, "▁مزه": 8446, "▁نیست": 8447, "▁وار": 8448, "▁پونجی": 8449, "▁پیڑ": 8450, "؛": 8451, "علیھم": 8452, "پیدا": 8453, "کشائش": 8454, "▁13,": 8455, "▁24.": 8456, "▁45": 8457, "▁Sinai": 8458, "▁advanced": 8459, "▁divinity": 8460, "▁knowest": 8461, "▁اعتراض": 8462, "▁جاؤگے": 8463, "▁صحبت": 8464, "▁مینھ": 8465, "▁میو": 8466, "▁وائیرڈ": 8467, "▁واقعا": 8468, "Make": 8469, "▁Colossians": 8470, "▁clarify": 8471, "▁displayed": 8472, "▁extended": 8473, "▁pursuit": 8474, "▁thrones": 8475, "▁الحرام": 8476, "▁سلیمانؑ": 8477, "▁پڑھائی": 8478, "ra": 8479, "rt": 8480, "▁Church": 8481, "▁Gabriel": 8482, "▁Ps": 8483, "▁argued": 8484, "▁jest": 8485, "▁oppressors": 8486, "▁recline": 8487, "▁تخ": 8488, "▁ضیافت": 8489, "▁لاؤ۔": 8490, "▁مسجدوں": 8491, "▁ناشکر": 8492, "▁پولیس": 8493, "▁چلائیں": 8494, "▁گھٹنوں": 8495, "rain": 8496, "▁compelled": 8497, "▁swallowed": 8498, "▁talks": 8499, "▁بچایا": 8500, "▁طالبعلم": 8501, "▁کارروائی": 8502, "ْ": 8503, "▁deafness": 8504, "▁kinship": 8505, "▁periods": 8506, "▁variance": 8507, "alone": 8508, "▁borne": 8509, "▁crucify": 8510, "▁obeying": 8511, "▁outstanding": 8512, "▁presently": 8513, "▁supply": 8514, "▁violate": 8515, "▁wedding": 8516, "▁اتحاد": 8517, "▁دلایا": 8518, "▁ستائ": 8519, "▁سحر": 8520, "▁پئیں": 8521, "▁پھسلا": 8522, "necked": 8523, "متعین": 8524, "▁17,": 8525, "▁Elisha": 8526, "▁Prophethood": 8527, "▁Serve": 8528, "▁brocade": 8529, "▁competent": 8530, "▁deceit": 8531, "▁listed": 8532, "▁misery": 8533, "▁roots": 8534, "▁sad": 8535, "▁shepherds": 8536, "▁اعتقاد": 8537, "▁امام": 8538, "▁تازگی": 8539, "▁حملے": 8540, "▁نوع": 8541, "her": 8542, "ترا": 8543, "▁Ruth": 8544, "▁Zachariah": 8545, "▁exclusive": 8546, "▁instruct": 8547, "▁labor": 8548, "▁paying": 8549, "▁rulers": 8550, "▁screen": 8551, "▁ستارہ": 8552, "▁شیخی": 8553, "most": 8554, "nigh": 8555, "third": 8556, "▁ages": 8557, "▁dispersed": 8558, "▁fetters": 8559, "▁hateful": 8560, "▁lowly": 8561, "▁patron": 8562, "▁plots": 8563, "▁rope": 8564, "▁salt": 8565, "▁thyself": 8566, "▁troops": 8567, "▁اتفاق": 8568, "▁جھاگ": 8569, "▁جھلس": 8570, "▁دلا": 8571, "▁دیکھتی": 8572, "▁سمجھایا": 8573, "▁سکتا۔": 8574, "▁مانگے": 8575, "▁چہرہ": 8576, "powerful": 8577, "پ": 8578, "▁abstain": 8579, "▁amid": 8580, "▁check": 8581, "▁remembering": 8582, "▁weep": 8583, "▁امیدیں": 8584, "▁تلوار": 8585, "▁Sort": 8586, "▁eaten": 8587, "▁entitled": 8588, "▁foundation": 8589, "▁playing": 8590, "▁sat": 8591, "▁بولو": 8592, "▁جرمنی": 8593, "▁سنگت": 8594, "▁لگاتا": 8595, "▁نقطۂ": 8596, "▁ڈرنا": 8597, "آ": 8598, "ہمارا": 8599, "▁accountable": 8600, "▁calm": 8601, "▁discussed": 8602, "▁loud": 8603, "▁remnant": 8604, "▁rightful": 8605, "▁اجاز": 8606, "▁بنتا": 8607, "▁لغو": 8608, "▁موجب": 8609, "▁٭": 8610, "▁پلائ": 8611, "وئیں": 8612, "▁(%": 8613, "▁19,": 8614, "▁Christianity": 8615, "▁asleep": 8616, "▁dangerous": 8617, "▁helpful": 8618, "▁obtained": 8619, "▁views": 8620, "▁wholly": 8621, "▁اکھاڑ": 8622, "▁جادوگروں": 8623, "▁غبار": 8624, "▁فہم": 8625, "▁ٹیسٹ": 8626, "▁۴۸": 8627, "Chapter": 8628, "void": 8629, "زندہ": 8630, "صادر": 8631, "▁aggression": 8632, "▁ordinance": 8633, "▁°": 8634, "▁اقدام": 8635, "▁پہر": 8636, "چنانچہ": 8637, "▁22,": 8638, "▁37": 8639, "▁Abode": 8640, "▁Cry": 8641, "▁Mujrim": 8642, "▁Nooh": 8643, "▁Yourself": 8644, "▁awake": 8645, "▁heritage": 8646, "▁overseers": 8647, "▁similarly": 8648, "▁values": 8649, "▁wave": 8650, "▁تجربے": 8651, "▁سرخ": 8652, "▁طالو": 8653, "▁مادی": 8654, "▁مشتبہ": 8655, "▁پیارے": 8656, "جبریل": 8657, "▁36": 8658, "▁cost": 8659, "▁images": 8660, "▁mixed": 8661, "▁safely": 8662, "▁summon": 8663, "▁بناؤ۔": 8664, "▁تقدیر": 8665, "▁جھٹلایا۔": 8666, "▁دھواں": 8667, "▁قصاص": 8668, "▁منشیات": 8669, "▁پوجو": 8670, "طاغوت": 8671, "▁Dr": 8672, "▁archives": 8673, "▁games": 8674, "▁lifted": 8675, "▁publishers": 8676, "▁stick": 8677, "▁subjects": 8678, "▁tempt": 8679, "▁بڑھاتا": 8680, "▁دفاع": 8681, "▁صفائی": 8682, "▁منا": 8683, "▁منصف": 8684, "▁ٹھیر": 8685, "°": 8686, "ٹھائے": 8687, "▁Internet": 8688, "▁acknowledged": 8689, "▁listeners": 8690, "▁polytheism": 8691, "▁properties": 8692, "▁surprised": 8693, "▁sword": 8694, "▁پہنائ": 8695, "▁Wrath": 8696, "▁enters": 8697, "▁offers": 8698, "▁table": 8699, "▁wealthy": 8700, "▁تھیں۔": 8701, "▁زندگیوں": 8702, "▁شرمند": 8703, "▁فاصلہ": 8704, "▁چڑھائی": 8705, ":\"": 8706, "Therefore": 8707, "▁Near": 8708, "▁Under": 8709, "▁befallen": 8710, "▁defiantly": 8711, "▁deserving": 8712, "▁disperse": 8713, "▁factors": 8714, "▁mortals": 8715, "▁narrow": 8716, "▁remembered": 8717, "▁thread": 8718, "▁احمق": 8719, "▁جیتے": 8720, "▁زلزلے": 8721, "▁شکایت": 8722, "under": 8723, "باز": 8724, "سکو": 8725, "▁Ecclesiastes": 8726, "▁Glorified": 8727, "▁Meeting": 8728, "▁bottom": 8729, "▁deviate": 8730, "▁harmed": 8731, "▁ideas": 8732, "▁illegal": 8733, "▁mass": 8734, "▁region": 8735, "▁translation": 8736, "▁unwillingly": 8737, "▁خرم": 8738, "▁روزمر": 8739, "▁غل": 8740, "▁لکھے": 8741, "Gospel": 8742, "▁Guide": 8743, "▁arrive": 8744, "▁capable": 8745, "▁confer": 8746, "▁devise": 8747, "▁feareth": 8748, "▁instructions": 8749, "▁scholars": 8750, "▁sinned": 8751, "▁tales": 8752, "▁الیاس": 8753, "▁بوڑھا": 8754, "▁لرز": 8755, "▁ماہرین": 8756, "▁نحمیا": 8757, "▁نوکری": 8758, "▁کثیر": 8759, "دا": 8760, "عام": 8761, "ھوں": 8762, "ہوں": 8763, "▁PAGE": 8764, "▁bit": 8765, "▁branches": 8766, "▁compact": 8767, "▁deliverance": 8768, "▁directly": 8769, "▁ingrate": 8770, "▁nose": 8771, "▁prompt": 8772, "▁pronounce": 8773, "▁weary": 8774, "▁گری": 8775, "ro": 8776, "مہربانی": 8777, "▁Germany": 8778, "▁conclude": 8779, "▁dealings": 8780, "▁delivers": 8781, "▁favored": 8782, "▁nobles": 8783, "▁بظاہر": 8784, "▁رازوں": 8785, "▁رہبر": 8786, "▁طالبعلموں": 8787, "▁موسیقی": 8788, "▁کھ": 8789, "ئہ": 8790, "تھی": 8791, "شخص": 8792, "▁Explain": 8793, "▁Use": 8794, "▁buried": 8795, "▁occasions": 8796, "▁writer": 8797, "▁برت": 8798, "▁تفریق": 8799, "▁سارہ": 8800, "▁مطبوعات": 8801, "▁گندگی": 8802, "تنے": 8803, "وقت": 8804, "▁absent": 8805, "▁authorities": 8806, "▁comments": 8807, "▁oblivious": 8808, "▁remote": 8809, "▁دا": 8810, "▁روکتا": 8811, "▁سمجھانے": 8812, "▁مصنف": 8813, "▁مٹ": 8814, "▁پھرتی": 8815, "ors": 8816, "آخر": 8817, "تار": 8818, "▁Any": 8819, "▁captive": 8820, "▁forsaken": 8821, "▁global": 8822, "▁hastening": 8823, "▁palace": 8824, "▁prophecies": 8825, "▁wash": 8826, "▁بدکردار": 8827, "▁تار": 8828, "▁جانتے۔": 8829, "▁جینا": 8830, "▁خوشے": 8831, "▁ریکارڈ": 8832, "▁سپاہی": 8833, "▁عیسوی": 8834, "▁گرج": 8835, "ح": 8836, "گناہوں": 8837, "▁American": 8838, "▁Death": 8839, "▁Page": 8840, "▁assembled": 8841, "▁guarding": 8842, "▁records": 8843, "▁weapons": 8844, "▁withholds": 8845, "▁آسٹریلیا": 8846, "▁بچھا": 8847, "▁حزقی": 8848, "▁شاد": 8849, "▁منتشر": 8850, "▁مولا": 8851, "Hearing": 8852, "بنی": 8853, "پڑے": 8854, "▁compel": 8855, "▁entrust": 8856, "▁fools": 8857, "▁foster": 8858, "▁hated": 8859, "▁mistakes": 8860, "▁opportunities": 8861, "▁pronounced": 8862, "▁rejection": 8863, "▁site": 8864, "▁solid": 8865, "▁sorcerers": 8866, "▁void": 8867, "▁vows": 8868, "▁سیکھی": 8869, "▁شکنی": 8870, "▁قیدخان": 8871, "الله": 8872, "بچہ": 8873, "تمہارا": 8874, "تیار": 8875, "ذرا": 8876, "نو": 8877, "وب": 8878, "چند": 8879, "▁22.": 8880, "▁Maybe": 8881, "▁fierce": 8882, "▁pursuing": 8883, "▁slow": 8884, "▁victors": 8885, "▁video": 8886, "▁zealous": 8887, "▁داہن": 8888, "▁منکروں": 8889, "▁کہا۔": 8890, "Blazing": 8891, "anything": 8892, "ileth": 8893, "im": 8894, "باطل": 8895, "تبلیغ": 8896, "ترین": 8897, "نافرمان": 8898, "▁Flood": 8899, "▁Furthermore": 8900, "▁Kind": 8901, "▁Left": 8902, "▁affluent": 8903, "▁arm": 8904, "▁encompass": 8905, "▁faithfully": 8906, "▁g": 8907, "▁honourably": 8908, "▁impossible": 8909, "▁outward": 8910, "▁walls": 8911, "▁ثبات": 8912, "▁رکھوں": 8913, "▁سکوں": 8914, "▁لائے۔": 8915, "▁معاشی": 8916, "▁پلاتے": 8917, "▁پھیریں": 8918, "▁Ilah": 8919, "▁Teach": 8920, "▁behaved": 8921, "▁exhausted": 8922, "▁masters": 8923, "▁series": 8924, "▁wolf": 8925, "▁عطیات": 8926, "▁محکم": 8927, "▁مول": 8928, "▁پرسش": 8929, "▁گزری": 8930, "▁Imagine": 8931, "▁Observe": 8932, "▁announced": 8933, "▁اصرار": 8934, "▁خوشحالی": 8935, "▁دانت": 8936, "▁سہولت": 8937, "▁مناتے": 8938, "▁چلانے": 8939, "▁چھوڑو": 8940, "ناہوں": 8941, "▁25.": 8942, "▁absolute": 8943, "▁considering": 8944, "▁helpless": 8945, "▁international": 8946, "▁planning": 8947, "▁relates": 8948, "▁research": 8949, "▁stream": 8950, "▁younger": 8951, "▁تاریک": 8952, "▁شرط": 8953, "▁مطابقت": 8954, "▁کارگزاری": 8955, "▁گھبراہٹ": 8956, "▁Close": 8957, "▁Govern": 8958, "▁Names": 8959, "▁beforehand": 8960, "▁hoping": 8961, "▁missionaries": 8962, "▁monks": 8963, "▁status": 8964, "▁wound": 8965, "▁افسانے": 8966, "▁بیوقوف": 8967, "▁لاؤں": 8968, "▁معرو": 8969, "▁میکسیکو": 8970, "▁ناواقف": 8971, "▁ڈالوں": 8972, "Ah": 8973, "ne": 8974, "رانے": 8975, "فریب": 8976, "▁18,": 8977, "▁Acquainted": 8978, "▁WHAT": 8979, "▁doctor": 8980, "▁gonna": 8981, "▁previously": 8982, "▁publication": 8983, "▁sacrificial": 8984, "▁امریکی": 8985, "▁تینوں": 8986, "▁قری": 8987, "Strike": 8988, "rb": 8989, "شمنوں": 8990, "لینڈ": 8991, "▁Face": 8992, "▁Micah": 8993, "▁abject": 8994, "▁awaiting": 8995, "▁camp": 8996, "▁ignored": 8997, "▁inhabited": 8998, "▁ابو": 8999, "▁تاوان": 9000, "▁عادی": 9001, "▁فائلوں": 9002, "Rahman": 9003, "lo": 9004, "بت": 9005, "▁Everything": 9006, "▁Retribution": 9007, "▁beg": 9008, "▁decisive": 9009, "▁describes": 9010, "▁inflicted": 9011, "▁متصل": 9012, "Get": 9013, "Here": 9014, "▁Learn": 9015, "▁agony": 9016, "▁glance": 9017, "▁hostile": 9018, "▁illustrate": 9019, "▁proportion": 9020, "▁unbeliever": 9021, "▁افس": 9022, "▁بناتی": 9023, "▁دربار": 9024, "▁پالا": 9025, "▁گھسیٹ": 9026, "Jacob": 9027, "Qur": 9028, "ہوا": 9029, "▁Harun": 9030, "▁Thank": 9031, "▁cares": 9032, "▁discern": 9033, "▁distort": 9034, "▁financial": 9035, "▁forge": 9036, "▁iniquity": 9037, "▁sleeping": 9038, "▁بک": 9039, "▁جاتیں": 9040, "▁رسیاں": 9041, "▁شعلہ": 9042, "▁منت": 9043, "▁پڑنا": 9044, "▁پیمانے": 9045, "▁۱۱۹": 9046, "ph": 9047, "غیب": 9048, "لاحق": 9049, "▁acquire": 9050, "▁boastful": 9051, "▁deck": 9052, "▁distinguished": 9053, "▁environment": 9054, "▁hundreds": 9055, "▁suitable": 9056, "▁باغی": 9057, "▁تندرست": 9058, "▁دیتے۔": 9059, "▁مفلس": 9060, "▁پھٹا": 9061, "▁Hav": 9062, "▁OF": 9063, "▁Rich": 9064, "▁discussion": 9065, "▁immense": 9066, "▁impose": 9067, "▁imposed": 9068, "▁intellect": 9069, "▁recitation": 9070, "▁reprieved": 9071, "▁token": 9072, "▁انگلیاں": 9073, "▁بوند": 9074, "▁تانبے": 9075, "▁حالتوں": 9076, "▁سننا": 9077, "▁مٹھی": 9078, "▁پہاڑی": 9079, "▁چھوا": 9080, "tree": 9081, "بازی": 9082, "جسے": 9083, "▁Finally": 9084, "▁France": 9085, "▁Mexico": 9086, "▁Till": 9087, "▁model": 9088, "▁neighbors": 9089, "▁vanity": 9090, "▁withdrew": 9091, "▁اونچا": 9092, "▁سدا": 9093, "▁شیر": 9094, "▁فتو": 9095, "▁نائب": 9096, "things": 9097, "thus": 9098, "بر": 9099, "بڑا": 9100, "بڑھاپا": 9101, "عبرت": 9102, "▁deceased": 9103, "▁knees": 9104, "▁possibly": 9105, "▁promote": 9106, "▁restricts": 9107, "▁settlement": 9108, "▁بناؤں": 9109, "▁بیزاری": 9110, "▁سیکھنا": 9111, "▁پڑھے": 9112, "▁پہنچو": 9113, "▁چیونٹی": 9114, "▁گئی۔": 9115, "▁گچھ": 9116, "▁یاب": 9117, "7": 9118, "doer": 9119, "بالکل": 9120, "جہنم": 9121, "خضر": 9122, "سراپا": 9123, "▁0": 9124, "▁Praised": 9125, "▁conspire": 9126, "▁equitable": 9127, "▁foe": 9128, "▁memory": 9129, "▁shine": 9130, "▁smaller": 9131, "▁uphold": 9132, "▁بچالے": 9133, "▁ریاستہائےمتحدہ": 9134, "▁صدیق": 9135, "▁قحط": 9136, "▁مسند": 9137, "▁موٹی": 9138, "▁پیسہ": 9139, "ارشاد": 9140, "بالآخر": 9141, "تراتے": 9142, "داریاں": 9143, "مبتلا": 9144, "ھ": 9145, "ہرگز": 9146, "▁rows": 9147, "▁sink": 9148, "▁supposed": 9149, "▁انار": 9150, "▁انبیائ": 9151, "▁تئیں": 9152, "▁تھک": 9153, "▁جلنے": 9154, "▁دشوار": 9155, "▁ساحل": 9156, "▁عملوں": 9157, "▁پوچھنے": 9158, "▁پہنچنا": 9159, "▁چارپای": 9160, "▁چاہے۔": 9161, "seeing": 9162, "فعال": 9163, "وری": 9164, "▁Goliath": 9165, "▁capital": 9166, "▁color": 9167, "▁enable": 9168, "▁followeth": 9169, "▁lifeless": 9170, "▁prisoners": 9171, "▁prophethood": 9172, "▁wood": 9173, "▁باطنی": 9174, "▁جائینگے": 9175, "▁وعظ": 9176, "▁چاہت": 9177, "▁کیمپ": 9178, "From": 9179, "Iqamat": 9180, "▁Deuteronomy": 9181, "▁brand": 9182, "▁disappointed": 9183, "▁drag": 9184, "▁excessive": 9185, "▁hallow": 9186, "▁popular": 9187, "▁scheming": 9188, "▁secular": 9189, "▁sing": 9190, "▁اخذ": 9191, "▁اعتدال": 9192, "▁برسائے": 9193, "▁بڑھایا": 9194, "▁بیوہ": 9195, "▁جذبہ": 9196, "▁دکھلا": 9197, "▁سرگزشت": 9198, "▁سماعت": 9199, "لئے": 9200, "ودولت": 9201, "گویا": 9202, "▁couples": 9203, "▁defer": 9204, "▁magnify": 9205, "▁measured": 9206, "▁plunge": 9207, "▁preced": 9208, "▁raging": 9209, "▁refers": 9210, "▁خودغرض": 9211, "▁علماء": 9212, "▁معمور": 9213, "▁میم": 9214, "yet": 9215, "باعزت": 9216, "▁Magog": 9217, "▁credit": 9218, "▁dragged": 9219, "▁instructed": 9220, "▁intention": 9221, "▁multiply": 9222, "▁observes": 9223, "▁per": 9224, "▁دانستہ": 9225, "▁فرانس": 9226, "▁مریں": 9227, "▁معجز": 9228, "▁نجاست": 9229, "▁پاش": 9230, "▁کھال": 9231, "▁گھونٹ": 9232, "▁climb": 9233, "▁decline": 9234, "▁doesn": 9235, "▁excel": 9236, "▁relieved": 9237, "▁reminders": 9238, "▁rivals": 9239, "▁ذم": 9240, "▁مختصر": 9241, "ma": 9242, "آدم": 9243, "موت": 9244, "ود": 9245, "▁Ezekiel": 9246, "▁belongings": 9247, "▁disorder": 9248, "▁gambling": 9249, "▁hasty": 9250, "▁narrate": 9251, "▁perpetual": 9252, "▁pouring": 9253, "▁ساخت": 9254, "▁سرگردا": 9255, "▁مشاہدہ": 9256, "▁معیشت": 9257, "▁کلک": 9258, "midst": 9259, "▁apes": 9260, "▁consultation": 9261, "▁rabbis": 9262, "▁species": 9263, "▁transgressor": 9264, "▁آدھا": 9265, "▁اون": 9266, "▁ٹھکانے": 9267, "▁پوشاک": 9268, "ary": 9269, "punishment": 9270, "آباد": 9271, "رمحبت": 9272, "کائنات": 9273, "▁Watch": 9274, "▁bequeathed": 9275, "▁calumny": 9276, "▁confederates": 9277, "▁indicated": 9278, "▁island": 9279, "▁olives": 9280, "▁thirsty": 9281, "▁آزما": 9282, "▁اعادہ": 9283, "▁برتن": 9284, "▁تھکا": 9285, "▁تیس": 9286, "▁فضا": 9287, "▁کورس": 9288, "▁ہل": 9289, "Lout": 9290, "Prostrate": 9291, "صاف": 9292, "صحیح": 9293, "چار": 9294, "▁allegiance": 9295, "▁base": 9296, "▁deserves": 9297, "▁enrich": 9298, "▁folders": 9299, "▁paternal": 9300, "▁phone": 9301, "▁sayings": 9302, "▁sharp": 9303, "▁statements": 9304, "▁stubborn": 9305, "▁traces": 9306, "▁ذی": 9307, "▁رکھو۔": 9308, "Fi": 9309, "▁Helper": 9310, "▁Vol": 9311, "▁corrupters": 9312, "▁cows": 9313, "▁excesses": 9314, "▁victims": 9315, "▁withheld": 9316, "▁آزمات": 9317, "▁اصطلاح": 9318, "▁بالوں": 9319, "▁خاتمے": 9320, "▁دورہ": 9321, "▁مباشرت": 9322, "▁مبین": 9323, "▁چھوڑتا": 9324, "▁۴۶": 9325, "Wait": 9326, "▁Korah": 9327, "▁bidding": 9328, "▁caller": 9329, "▁compeers": 9330, "▁positions": 9331, "▁precise": 9332, "▁reflected": 9333, "▁similitudes": 9334, "▁steal": 9335, "▁strove": 9336, "▁tired": 9337, "▁اترتے": 9338, "▁تلخ": 9339, "▁عنوان": 9340, "▁میٹھ": 9341, "▁چکھیں": 9342, "▁کئے۔": 9343, "باپ": 9344, "بد": 9345, "خون": 9346, "مختلف": 9347, "وق": 9348, "▁Gilead": 9349, "▁culprits": 9350, "▁habits": 9351, "▁hiding": 9352, "▁reap": 9353, "▁wed": 9354, "▁آؤ۔": 9355, "▁اخیر": 9356, "▁اوڑھن": 9357, "▁زیب": 9358, "▁گریبان": 9359, "back": 9360, "î": 9361, "بالفرض": 9362, "سزا": 9363, "▁1914": 9364, "▁assure": 9365, "▁finding": 9366, "▁harder": 9367, "▁neglectful": 9368, "▁newspaper": 9369, "▁renounce": 9370, "▁sorry": 9371, "▁sow": 9372, "▁temporary": 9373, "▁townships": 9374, "▁turmoil": 9375, "▁قبیلے": 9376, "▁مسجدیں": 9377, "▁معمول": 9378, "▁معی": 9379, "▁کرتوت": 9380, "themselves": 9381, "آخرکار": 9382, "اتا": 9383, "▁38": 9384, "▁Exodus": 9385, "▁Jew": 9386, "▁admits": 9387, "▁churches": 9388, "▁comforted": 9389, "▁fragments": 9390, "▁inspire": 9391, "▁owner": 9392, "▁rejecting": 9393, "▁stoned": 9394, "▁جنا": 9395, "▁حوریں": 9396, "▁داستان": 9397, "ist": 9398, "ry": 9399, "زواج": 9400, "ستاروں": 9401, "فکر": 9402, "نطفے": 9403, "▁Glorious": 9404, "▁directs": 9405, "▁manna": 9406, "▁perverted": 9407, "▁pit": 9408, "▁prior": 9409, "▁purchased": 9410, "▁rites": 9411, "▁suggestions": 9412, "▁اورجس": 9413, "▁اٹھانا": 9414, "▁بچیں": 9415, "▁بڑ": 9416, "▁صارف": 9417, "▁غیرقوم": 9418, "▁لوٹے": 9419, "▁ٹھیرائ": 9420, "▁ہوجاؤں": 9421, "Throw": 9422, "indeed": 9423, "محفوظ": 9424, "وحی": 9425, "▁aged": 9426, "▁ere": 9427, "▁hindered": 9428, "▁indicate": 9429, "▁kindle": 9430, "▁omen": 9431, "▁worry": 9432, "▁اؔ": 9433, "▁حماقت": 9434, "▁خبروں": 9435, "▁فرمانا": 9436, "▁لذت": 9437, "▁گھوڑوں": 9438, "▁یعقوبؑ": 9439, "Seer": 9440, "عاقب": 9441, "فائدہ": 9442, "▁Alas": 9443, "▁conflict": 9444, "▁facts": 9445, "▁quails": 9446, "▁repose": 9447, "▁seriously": 9448, "▁storm": 9449, "▁thick": 9450, "▁باطن": 9451, "▁جملہ": 9452, "▁جوکہ": 9453, "▁مواقع": 9454, "▁چیت": 9455, "Y": 9456, "ter": 9457, "حرف": 9458, "منظر": 9459, "ھلا": 9460, "▁soft": 9461, "▁whisper": 9462, "▁winter": 9463, "▁انتقال": 9464, "▁چھڑانے": 9465, "▁کود": 9466, "Oh": 9467, "حال": 9468, "زاری": 9469, "ویں": 9470, "▁Christendom": 9471, "▁damage": 9472, "▁ocean": 9473, "▁require": 9474, "▁speaker": 9475, "▁unrighteous": 9476, "▁آلود": 9477, "▁رنگت": 9478, "▁مسل": 9479, "▁گرنے": 9480, "▁گڑھے": 9481, "اصل": 9482, "تھا": 9483, "▁communicate": 9484, "▁disclosed": 9485, "▁earnestly": 9486, "▁falsehoods": 9487, "▁flames": 9488, "▁goats": 9489, "▁humanity": 9490, "▁reckon": 9491, "▁relieve": 9492, "▁standard": 9493, "▁stir": 9494, "▁تیسری": 9495, "▁روزانہ": 9496, "▁زخمی": 9497, "▁علامتی": 9498, "▁ناقابل": 9499, "▁نتیجتا": 9500, "▁وکیل": 9501, "▁کمات": 9502, "Put": 9503, "▁earning": 9504, "▁heaviness": 9505, "▁impressed": 9506, "▁mix": 9507, "▁perception": 9508, "▁translated": 9509, "▁weaken": 9510, "▁بستر": 9511, "▁بےانصاف": 9512, "▁سالم": 9513, "▁سرگرمی": 9514, "▁غوروخوض": 9515, "▁ٹرانسلیشن": 9516, "because": 9517, "خیر": 9518, "وقوف": 9519, "▁Servants": 9520, "▁advised": 9521, "▁happening": 9522, "▁journeying": 9523, "▁relationships": 9524, "▁wilderness": 9525, "▁دکھانا": 9526, "▁لائن": 9527, "▁لگنے": 9528, "▁مزاج": 9529, "▁مقدس": 9530, "▁چیلنج": 9531, "la": 9532, "pious": 9533, "seeming": 9534, "▁Sa": 9535, "▁approaching": 9536, "▁balanced": 9537, "▁clothe": 9538, "▁conceived": 9539, "▁concerns": 9540, "▁crucified": 9541, "▁custom": 9542, "▁hardships": 9543, "▁keeper": 9544, "▁rectitude": 9545, "▁tend": 9546, "▁utmost": 9547, "▁تعاون": 9548, "▁دیدے": 9549, "▁سکھائیں": 9550, "▁فلم": 9551, "▁لکڑی": 9552, "▁پیشوائی": 9553, "▁چارہ": 9554, "▁گھن": 9555, "Truly": 9556, "go": 9557, "حیات": 9558, "ساری": 9559, "ینگے": 9560, "▁Australia": 9561, "▁SONGS": 9562, "▁Sarah": 9563, "▁adding": 9564, "▁canopy": 9565, "▁coin": 9566, "▁farther": 9567, "▁increasing": 9568, "▁maternal": 9569, "▁pick": 9570, "▁primary": 9571, "▁providers": 9572, "▁rulership": 9573, "▁veils": 9574, "▁اعضا": 9575, "▁جزیر": 9576, "▁عائد": 9577, "▁لوہا": 9578, "▁ویران": 9579, "▁پھینکے": 9580, "▁ہمراہ": 9581, "another": 9582, "ئیڈ": 9583, "بنا": 9584, "ترتا": 9585, "کاری": 9586, "▁WE": 9587, "▁exhortation": 9588, "▁forelock": 9589, "▁listens": 9590, "▁obeisance": 9591, "▁pleaseth": 9592, "▁انحراف": 9593, "▁بڑھیا": 9594, "▁جائیگی": 9595, "▁جیت": 9596, "▁حکمران": 9597, "▁گڑگڑا": 9598, "▁گھاس": 9599, "Of": 9600, "قوت": 9601, "▁Galatians": 9602, "▁beat": 9603, "▁confess": 9604, "▁exemplary": 9605, "▁imprisoned": 9606, "▁lame": 9607, "▁ارادے": 9608, "▁تابعدار": 9609, "▁جاتے۔": 9610, "▁حسب": 9611, "▁دھکیل": 9612, "▁لگائی": 9613, "co": 9614, "احبار": 9615, "غیر": 9616, "ما": 9617, "▁appreciated": 9618, "▁center": 9619, "▁exhort": 9620, "▁objects": 9621, "▁praised": 9622, "▁tower": 9623, "▁بدکاروں": 9624, "▁جاپان": 9625, "▁دہکت": 9626, "▁پکڑنے": 9627, "▁ہوگئیں": 9628, "age": 9629, "نچیں": 9630, "▁Unquestionably": 9631, "▁accused": 9632, "▁average": 9633, "▁hole": 9634, "▁miss": 9635, "▁redeem": 9636, "▁shades": 9637, "▁slaughtering": 9638, "▁sparing": 9639, "▁سکونت": 9640, "Look": 9641, "V": 9642, "many": 9643, "tic": 9644, "محمد": 9645, "واقعہ": 9646, "ڈ": 9647, "▁Return": 9648, "▁applied": 9649, "▁contents": 9650, "▁decades": 9651, "▁disgraceful": 9652, "▁expressions": 9653, "▁necessity": 9654, "▁notes": 9655, "▁tranquillity": 9656, "▁اترے": 9657, "▁تل": 9658, "▁حالی": 9659, "▁فتنے": 9660, "▁قانونی": 9661, "▁مسیحا": 9662, "▁پارہ": 9663, "▁چھوڑیں": 9664, "▁گھڑت": 9665, "▁ہمدردی": 9666, "H": 9667, "تقرب": 9668, "تیرے": 9669, "ظہار": 9670, "قبر": 9671, "▁@": 9672, "▁Sometimes": 9673, "▁idolater": 9674, "▁praising": 9675, "▁runs": 9676, "▁ئيں": 9677, "▁اسحاقؑ": 9678, "▁اندوز": 9679, "▁انسانو": 9680, "▁تمجید": 9681, "▁زنی": 9682, "▁سورہ": 9683, "▁طبق": 9684, "▁قبیلہ": 9685, "▁وشام": 9686, "▁کھاؤ۔": 9687, "▁کھیلتے": 9688, "gotten": 9689, "more": 9690, "بہشت": 9691, "رم": 9692, "زبان": 9693, "زدہ": 9694, "قائم": 9695, "‘": 9696, "▁Nehemiah": 9697, "▁Parents": 9698, "▁colors": 9699, "▁flaming": 9700, "▁listener": 9701, "▁missing": 9702, "▁overturned": 9703, "▁saving": 9704, "▁summer": 9705, "▁western": 9706, "▁آزمائیں": 9707, "▁ابا": 9708, "▁جا۔": 9709, "▁حرکات": 9710, "▁سکھانے": 9711, "▁فج": 9712, "▁ماجوج": 9713, "▁مقاصد": 9714, "▁کھلانا": 9715, "ol": 9716, "عائیں": 9717, "▁acceptance": 9718, "▁approved": 9719, "▁blinded": 9720, "▁cell": 9721, "▁eats": 9722, "▁existed": 9723, "▁heartfelt": 9724, "▁numbered": 9725, "▁pastime": 9726, "▁travelling": 9727, "▁welfare": 9728, "▁بڑھانے": 9729, "▁بڑھی": 9730, "▁خوان": 9731, "▁سوسائٹی": 9732, "Aad": 9733, "تدریج": 9734, "توں": 9735, "ختیار": 9736, "▁Therefor": 9737, "▁afore": 9738, "▁beholders": 9739, "▁economic": 9740, "▁familiar": 9741, "▁ignominy": 9742, "▁involve": 9743, "▁pen": 9744, "▁polytheist": 9745, "▁prolonged": 9746, "▁quoted": 9747, "▁بجھ": 9748, "▁چوتھا": 9749, "▁چوٹ": 9750, "something": 9751, "کون": 9752, "▁42": 9753, "▁Beholder": 9754, "▁Delight": 9755, "▁Grant": 9756, "▁equity": 9757, "▁fold": 9758, "▁hit": 9759, "▁hollow": 9760, "▁lust": 9761, "▁tilth": 9762, "▁villages": 9763, "▁اعت": 9764, "▁بدلتے": 9765, "▁ثنا": 9766, "▁شاہی": 9767, "▁مرغوب": 9768, "▁ملکہ": 9769, "▁کڑی": 9770, "▁کھولا": 9771, "ING": 9772, "Show": 9773, "op": 9774, "than": 9775, "لد": 9776, "ٹاور": 9777, "پاس": 9778, "ہا": 9779, "▁Gog": 9780, "▁duties": 9781, "▁eagerly": 9782, "▁issued": 9783, "▁prevailed": 9784, "▁prey": 9785, "▁sanctity": 9786, "▁testing": 9787, "▁trunks": 9788, "▁writes": 9789, "▁سازش": 9790, "▁صلاح": 9791, "ام": 9792, "قبول": 9793, "▁IS": 9794, "▁Reality": 9795, "▁brain": 9796, "▁driving": 9797, "▁drugs": 9798, "▁forgets": 9799, "▁greeted": 9800, "▁prophetic": 9801, "▁traveled": 9802, "▁بھاگو": 9803, "▁تکرار": 9804, "▁ورزش": 9805, "▁پگھل": 9806, "between": 9807, "shall": 9808, "وار": 9809, "▁23:": 9810, "▁ashes": 9811, "▁context": 9812, "▁hypocritical": 9813, "▁mild": 9814, "▁roasted": 9815, "▁selfish": 9816, "▁serves": 9817, "▁surround": 9818, "▁برطانیہ": 9819, "▁بصارت": 9820, "▁بندھ": 9821, "▁تشکیل": 9822, "▁زحمت": 9823, "▁صفح": 9824, "▁مستثنی": 9825, "▁مطلق": 9826, "▁مورت": 9827, "▁کھولنے": 9828, "▁۷۰": 9829, "bz": 9830, "▁Translation": 9831, "▁adhere": 9832, "▁attacked": 9833, "▁devoured": 9834, "▁doubted": 9835, "▁motion": 9836, "▁muster": 9837, "▁palaces": 9838, "▁reference": 9839, "▁successfully": 9840, "▁بحال": 9841, "▁درمیانی": 9842, "▁چپ": 9843, "▁کچل": 9844, "Saying": 9845, "▁ample": 9846, "▁blasphemy": 9847, "▁brightness": 9848, "▁dress": 9849, "▁heavily": 9850, "▁possesses": 9851, "▁الہی": 9852, "▁بوڑھی": 9853, "▁بھاگنا": 9854, "▁بھٹکے": 9855, "▁جوئی": 9856, "final": 9857, "me": 9858, "جیسے": 9859, "”,": 9860, "▁31.": 9861, "▁acquired": 9862, "▁elevated": 9863, "▁marvel": 9864, "▁stretched": 9865, "▁آشکارا": 9866, "▁الٹی": 9867, "▁درہم": 9868, "▁رفتہ": 9869, "▁پیس": 9870, "▁کوششیں": 9871, "▁گود": 9872, "Musa": 9873, "being": 9874, "لہامی": 9875, "▁Promised": 9876, "▁Saleh": 9877, "▁addressed": 9878, "▁ambush": 9879, "▁bzip": 9880, "▁darknesses": 9881, "▁depend": 9882, "▁goblets": 9883, "▁legacy": 9884, "▁misguided": 9885, "▁noticed": 9886, "▁pleasures": 9887, "▁postpone": 9888, "▁sooner": 9889, "▁الیم": 9890, "▁عار": 9891, "▁لے۔": 9892, "▁کاٹے": 9893, "دوسری": 9894, "▁Readers": 9895, "▁aspect": 9896, "▁diversion": 9897, "▁eternity": 9898, "▁immediate": 9899, "▁uttered": 9900, "▁بختی": 9901, "▁خصوصیات": 9902, "▁رتبہ": 9903, "▁شاہد": 9904, "▁عالمگیر": 9905, "▁قصے": 9906, "▁مقدمہ": 9907, "▁نشانات": 9908, "اجر": 9909, "تابی": 9910, "راست": 9911, "▁Hey": 9912, "▁IT": 9913, "▁Kings": 9914, "▁discord": 9915, "▁evidently": 9916, "▁fairly": 9917, "▁fare": 9918, "▁foods": 9919, "▁indicates": 9920, "▁presents": 9921, "▁satans": 9922, "▁structure": 9923, "▁جھیل": 9924, "▁سرکار": 9925, "▁مگن": 9926, "▁نافذ": 9927, "▁پیمانہ": 9928, "▁گاری": 9929, "Enjoy": 9930, "Tabari": 9931, "▁44": 9932, "▁Bear": 9933, "▁Israelite": 9934, "▁clusters": 9935, "▁copper": 9936, "▁dwelt": 9937, "▁figure": 9938, "▁mission": 9939, "▁paper": 9940, "▁proportioned": 9941, "▁thieves": 9942, "▁بخیل": 9943, "▁بنالیں": 9944, "▁بچنا": 9945, "▁تصاویر": 9946, "▁حاو": 9947, "▁خلائ": 9948, "▁خلوص": 9949, "▁سعی": 9950, "▁شکم": 9951, "▁قسمت": 9952, "▁لاتی": 9953, "▁وزیر": 9954, "▁ڈور": 9955, "▁کنیز": 9956, "every": 9957, "qub": 9958, "»": 9959, "بطور": 9960, "جوج": 9961, "حد": 9962, "لله": 9963, "وسرے": 9964, "▁Eternity": 9965, "▁Pray": 9966, "▁dutiful": 9967, "▁grains": 9968, "▁برتت": 9969, "▁زکواة": 9970, "▁سجود": 9971, "▁فرمادیا": 9972, "▁قطعا": 9973, "▁لیتے۔": 9974, "▁محش": 9975, "▁مریمؑ": 9976, "▁ٹھیراتے": 9977, "▁ہارونؑ": 9978, "▁ہوائی": 9979, "▁۱۹۱۴": 9980, "Was": 9981, "ci": 9982, "te": 9983, "شہر": 9984, "عارضی": 9985, "▁Place": 9986, "▁Regard": 9987, "▁Second": 9988, "▁attacks": 9989, "▁bonds": 9990, "▁c": 9991, "▁embraced": 9992, "▁grand": 9993, "▁minus": 9994, "▁national": 9995, "▁requirements": 9996, "▁widow": 9997, "▁آرہا": 9998, "▁بھال": 9999, "▁سیڑھی": 10000, "▁مکڑی": 10001, "▁پھیرو": 10002, "▁چکھو۔": 10003, "ED": 10004, "ous": 10005, "یہود": 10006, "▁Torment": 10007, "▁bind": 10008, "▁emotions": 10009, "▁frequently": 10010, "▁guess": 10011, "▁laughed": 10012, "▁spacious": 10013, "▁struggled": 10014, "▁رولر": 10015, "▁سیلاب": 10016, "▁فرد": 10017, "▁چھائی": 10018, "▁یارک": 10019, "makers": 10020, "wrong": 10021, "ـ": 10022, "والوں": 10023, "ٹھاتے": 10024, "▁BE": 10025, "▁Righteous": 10026, "▁Sin": 10027, "▁aim": 10028, "▁emigrate": 10029, "▁revealing": 10030, "▁upside": 10031, "▁visiting": 10032, "▁آسائش": 10033, "▁سرنگ": 10034, "▁علامات": 10035, "▁ماد": 10036, "▁مچ": 10037, "▁نمائندگ": 10038, "▁ٹھوکر": 10039, "▁پچاس": 10040, "▁چھوڑی": 10041, "▁چینی": 10042, "▁یادگاری": 10043, "without": 10044, "▁20,": 10045, "▁America": 10046, "▁Brooklyn": 10047, "▁Mine": 10048, "▁Pilgrimage": 10049, "▁absolve": 10050, "▁crying": 10051, "▁impugned": 10052, "▁media": 10053, "▁merit": 10054, "▁operation": 10055, "▁outcast": 10056, "▁ruins": 10057, "▁بدلیں": 10058, "▁بٹ": 10059, "▁حجم": 10060, "▁زد": 10061, "▁سانس": 10062, "▁قدردانی": 10063, "▁نفسانی": 10064, "▁پہ": 10065, "▁کاغذ": 10066, "▁گرہ": 10067, "ate": 10068, "ba": 10069, "deeds": 10070, "▁29.": 10071, "▁Cherisher": 10072, "▁Visible": 10073, "▁befit": 10074, "▁ownselves": 10075, "▁prevents": 10076, "▁purchase": 10077, "▁seduced": 10078, "▁سردی": 10079, "▁سوچنا": 10080, "▁لوٹتے": 10081, "▁مقدر": 10082, "▁ناا": 10083, "▁چھڑانا": 10084, "peace": 10085, "بیوی": 10086, "▁Blu": 10087, "▁Loving": 10088, "▁Swift": 10089, "▁collect": 10090, "▁construction": 10091, "▁depression": 10092, "▁depths": 10093, "▁development": 10094, "▁felicitous": 10095, "▁submits": 10096, "▁surah": 10097, "▁widows": 10098, "▁wrongdoer": 10099, "▁جھکی": 10100, "▁دوری": 10101, "▁پال": 10102, "▁7]": 10103, "▁II": 10104, "▁amass": 10105, "▁cells": 10106, "▁cleave": 10107, "▁dis": 10108, "▁endeavor": 10109, "▁finish": 10110, "▁majority": 10111, "▁producing": 10112, "▁selection": 10113, "▁tillage": 10114, "▁wasted": 10115, "▁wedlock": 10116, "▁بھ": 10117, "▁بیٹھی": 10118, "▁۵۵": 10119, "ذکر": 10120, "لائی": 10121, "چکا": 10122, "▁Japan": 10123, "▁anon": 10124, "▁bringer": 10125, "▁discouraged": 10126, "▁methods": 10127, "▁picked": 10128, "▁realm": 10129, "▁scribes": 10130, "▁surprise": 10131, "▁virgins": 10132, "▁بینائی": 10133, "▁رسم": 10134, "▁سلا": 10135, "▁معت": 10136, "▁مک": 10137, "▁نوازت": 10138, "الہ": 10139, "میدان": 10140, "کشتی": 10141, "▁BY": 10142, "▁Concern": 10143, "▁Eventually": 10144, "▁colours": 10145, "▁consent": 10146, "▁defender": 10147, "▁quake": 10148, "▁weaker": 10149, "▁بےخوف": 10150, "▁توثیق": 10151, "▁ستمبر": 10152, "while": 10153, "واقعی": 10154, "▁coats": 10155, "▁escaped": 10156, "▁foundations": 10157, "▁intelligence": 10158, "▁organized": 10159, "▁terrified": 10160, "▁tokens": 10161, "▁بالغ": 10162, "▁سوچے": 10163, "▁کرائی": 10164, "▁گھاٹی": 10165, ".'\"": 10166, "led": 10167, "▁41": 10168, "▁Ma": 10169, "▁appreciative": 10170, "▁beheld": 10171, "▁breach": 10172, "▁courses": 10173, "▁decides": 10174, "▁independent": 10175, "▁nearness": 10176, "▁overwhelming": 10177, "▁paltr": 10178, "▁repeatedly": 10179, "▁بتانا": 10180, "▁ترجمے": 10181, "▁طب": 10182, "▁عقیدے": 10183, "▁غلطیاں": 10184, "▁فطرت": 10185, "▁مشور": 10186, "▁والا۔": 10187, "▁ٹیڑھ": 10188, "▁پرستی": 10189, "▁چکو": 10190, "▁ڈول": 10191, "Muttaqun": 10192, "از": 10193, "انسانی": 10194, "جائے": 10195, "خلاص": 10196, "▁Clement": 10197, "▁September": 10198, "▁bearers": 10199, "▁bosom": 10200, "▁commission": 10201, "▁explaining": 10202, "▁hang": 10203, "▁police": 10204, "▁pomegranates": 10205, "▁prosperous": 10206, "▁straitens": 10207, "▁succoured": 10208, "▁sufficeth": 10209, "▁tent": 10210, "▁برداری": 10211, "▁بف": 10212, "▁بپتسم": 10213, "▁بھڑک": 10214, "▁بیبی": 10215, "▁تجربات": 10216, "▁سرسبز": 10217, "▁پتا": 10218, "▁پخت": 10219, "▁پلائی": 10220, "▁یعقو": 10221, "تارا": 10222, "▁Hellfire": 10223, "▁Manifest": 10224, "▁St": 10225, "▁appeal": 10226, "▁assault": 10227, "▁chest": 10228, "▁executed": 10229, "▁observing": 10230, "▁tremble": 10231, "▁انعامات": 10232, "▁اوسط": 10233, "▁برج": 10234, "▁بےنیاز": 10235, "▁مطلوب": 10236, "▁نمو": 10237, "▁نڈر": 10238, "▁وصول": 10239, "▁کٹھ": 10240, "▁ہتھیاروں": 10241, "Can": 10242, "SAW": 10243, "ta": 10244, "افزا": 10245, "سر": 10246, "ضامن": 10247, "▁April": 10248, "▁Recite": 10249, "▁criterion": 10250, "▁finest": 10251, "▁humiliate": 10252, "▁mildness": 10253, "▁privately": 10254, "▁solution": 10255, "▁version": 10256, "▁victim": 10257, "▁vie": 10258, "▁بسا": 10259, "▁جاگتے": 10260, "▁دھتکار": 10261, "▁رہئے": 10262, "▁پھیرنے": 10263, "flung": 10264, "li": 10265, "یگا": 10266, "▁37:": 10267, "▁Decree": 10268, "▁Enoch": 10269, "▁Mosaic": 10270, "▁alcohol": 10271, "▁excess": 10272, "▁exert": 10273, "▁motivate": 10274, "▁severely": 10275, "▁spider": 10276, "▁اپریل": 10277, "▁بیبیوں": 10278, "▁داؤدؑ": 10279, "▁ساعت": 10280, "▁فروتن": 10281, "▁ڈالر": 10282, "can": 10283, "مؤمنین": 10284, "▁Grand": 10285, "▁Set": 10286, "▁Society": 10287, "▁bag": 10288, "▁board": 10289, "▁derive": 10290, "▁generosity": 10291, "▁strengthening": 10292, "▁tooth": 10293, "▁trunk": 10294, "▁writings": 10295, "▁اگرتم": 10296, "▁جبر": 10297, "▁صحرا": 10298, "▁فرمادے": 10299, "▁لام": 10300, "▁مابین": 10301, "▁منظم": 10302, "▁چاہوں": 10303, "Has": 10304, "Their": 10305, "Thou": 10306, "Which": 10307, "ite": 10308, "حسن": 10309, "▁Hidden": 10310, "▁Prov": 10311, "▁Tree": 10312, "▁creators": 10313, "▁earnest": 10314, "▁equally": 10315, "▁profits": 10316, "▁ridiculed": 10317, "▁بادشاه": 10318, "▁بھڑکا": 10319, "▁محمدی": 10320, "▁مدہوش": 10321, "▁وائیرلیس": 10322, "ممتاز": 10323, "پوری": 10324, "ڑ": 10325, "▁80": 10326, "▁India": 10327, "▁Within": 10328, "▁burned": 10329, "▁disquieting": 10330, "▁proclamation": 10331, "▁protects": 10332, "▁scene": 10333, "▁warrant": 10334, "▁بیانات": 10335, "▁جرائم": 10336, "▁سمندروں": 10337, "▁سکے۔": 10338, "▁فرستادہ": 10339, "▁نپٹن": 10340, "▁یونیورسٹی": 10341, "زائل": 10342, "عمر": 10343, "لائے": 10344, "▁August": 10345, "▁`": 10346, "▁applying": 10347, "▁attendance": 10348, "▁awhile": 10349, "▁bargain": 10350, "▁blameworthy": 10351, "▁defiance": 10352, "▁identify": 10353, "▁incite": 10354, "▁nurse": 10355, "▁satisfying": 10356, "▁wing": 10357, "▁حادثہ": 10358, "▁دینگے": 10359, "▁شاداب": 10360, "▁مشابہ": 10361, "▁موڑا": 10362, "▁ناقص": 10363, "▁چھوڑنا": 10364, "▁کلیسیائی": 10365, "▁گوئی": 10366, "ذب": 10367, "عیب": 10368, "▁23]": 10369, "▁background": 10370, "▁benefited": 10371, "▁commerce": 10372, "▁comparison": 10373, "▁exceeded": 10374, "▁factor": 10375, "▁frighten": 10376, "▁habit": 10377, "▁identified": 10378, "▁inevitable": 10379, "▁intentions": 10380, "▁marvels": 10381, "▁perverse": 10382, "▁potential": 10383, "▁weighed": 10384, "▁تعصب": 10385, "▁خواتین": 10386, "▁رانی": 10387, "▁رضاکار": 10388, "▁فکرمندی": 10389, "▁موازنہ": 10390, "▁نگہداشت": 10391, "▁ٹیکنالوجی": 10392, "▁ہلکی": 10393, "▁۶۵": 10394, "Aaron": 10395, "ث": 10396, "رحم": 10397, "لذیذ": 10398, "متوں": 10399, "پاک": 10400, "▁Asia": 10401, "▁Default": 10402, "▁conventions": 10403, "▁coverings": 10404, "▁exile": 10405, "▁outstrip": 10406, "▁pillars": 10407, "▁prone": 10408, "▁rejoiced": 10409, "▁shore": 10410, "▁strongest": 10411, "▁استقبال": 10412, "▁الٹا": 10413, "▁سست": 10414, "▁شور": 10415, "▁مشق": 10416, "▁کپڑ": 10417, "▁گھریلو": 10418, "گزین": 10419, "▁conviction": 10420, "▁doings": 10421, "▁extra": 10422, "▁ادائیگی": 10423, "▁انصافی": 10424, "▁تجدید": 10425, "▁خودکار": 10426, "▁خیم": 10427, "▁سگریٹ": 10428, "▁سہ": 10429, "▁شاخیں": 10430, "▁لٹکا": 10431, "▁موسلا": 10432, "▁موضوعات": 10433, "▁پرندہ": 10434, "▁چاہیے۔": 10435, "▁چیر": 10436, "Behold": 10437, "David": 10438, "ائیں": 10439, "جات": 10440, "کرنے": 10441, "▁Trust": 10442, "▁crookedness": 10443, "▁glorifie": 10444, "▁infant": 10445, "▁plight": 10446, "▁stubble": 10447, "▁اعتراف": 10448, "▁اکھٹے": 10449, "▁تنہائی": 10450, "▁جال": 10451, "▁راہنما": 10452, "▁’?": 10453, "com": 10454, "ائب": 10455, "پرست": 10456, "پن": 10457, "▁28.": 10458, "▁Maker": 10459, "▁burst": 10460, "▁chapters": 10461, "▁colour": 10462, "▁deserved": 10463, "▁distinctly": 10464, "▁footnote": 10465, "▁forwarded": 10466, "▁moderate": 10467, "▁permissions": 10468, "▁prohibit": 10469, "▁project": 10470, "▁revived": 10471, "▁rod": 10472, "▁safeguard": 10473, "▁برسائی": 10474, "▁روگ": 10475, "▁سمجھتی": 10476, "▁نمائندے": 10477, "None": 10478, "among": 10479, "keep": 10480, "rightly": 10481, "کئی": 10482, "کاش": 10483, "▁K": 10484, "▁Whereas": 10485, "▁attempt": 10486, "▁belly": 10487, "▁bountiful": 10488, "▁fancies": 10489, "▁heap": 10490, "▁manifold": 10491, "▁orbit": 10492, "▁آئیں۔": 10493, "▁افسر": 10494, "▁بعل": 10495, "▁بڑھائے": 10496, "▁حبق": 10497, "▁رائی": 10498, "▁سلوی": 10499, "▁نقشہ": 10500, "▁ویئر": 10501, "▁۴۷": 10502, "May": 10503, "was": 10504, "خیال": 10505, "رنتھیوں": 10506, "زق": 10507, "عبادت": 10508, "منتخب": 10509, "▁culture": 10510, "▁enabled": 10511, "▁endeavour": 10512, "▁fails": 10513, "▁headlong": 10514, "▁replaced": 10515, "▁sever": 10516, "▁team": 10517, "▁upset": 10518, "▁جذب": 10519, "▁طیب": 10520, "▁کردینا": 10521, "▁کھاری": 10522, "giving": 10523, "ina": 10524, "much": 10525, "stone": 10526, "دشمن": 10527, "دیکھ": 10528, "رخ": 10529, "ظ": 10530, "لکھا": 10531, "▁Baal": 10532, "▁Roller": 10533, "▁amazing": 10534, "▁beguile": 10535, "▁critical": 10536, "▁elite": 10537, "▁entrance": 10538, "▁glorified": 10539, "▁lines": 10540, "▁movement": 10541, "▁recount": 10542, "▁represent": 10543, "▁senses": 10544, "▁tall": 10545, "▁بوسیدہ": 10546, "▁خطرات": 10547, "▁دکھاؤں": 10548, "▁مدتوں": 10549, "▁پیشی": 10550, "Never": 10551, "Quran": 10552, "jinns": 10553, "ud": 10554, "امت": 10555, "صلاح": 10556, "▁2:2).": 10557, "▁Eisa": 10558, "▁Marium": 10559, "▁Muttaqun": 10560, "▁Wherein": 10561, "▁becometh": 10562, "▁bite": 10563, "▁detest": 10564, "▁lion": 10565, "▁lote": 10566, "▁repeats": 10567, "▁reputation": 10568, "▁stumble": 10569, "▁thirty": 10570, "▁tries": 10571, "▁بولتا": 10572, "▁خواری": 10573, "▁ریاست": 10574, "▁صا": 10575, "▁مستقیم": 10576, "▁پلائیں": 10577, "▁چھوڑتے": 10578, "▁کرتاہے": 10579, "▁ہسپتال": 10580, "ally": 10581, "laudable": 10582, "لم": 10583, "گرانی": 10584, "▁Auliya": 10585, "▁Verse": 10586, "▁Women": 10587, "▁ant": 10588, "▁burnt": 10589, "▁divide": 10590, "▁hides": 10591, "▁official": 10592, "▁spreads": 10593, "▁اشار": 10594, "▁اقوام": 10595, "▁ضعیف": 10596, "▁لادے": 10597, "▁ماری": 10598, "▁پلڑے": 10599, "▁پیاسے": 10600, "▁چھپائیں": 10601, "▁ڈالا۔": 10602, "▁کاہے": 10603, "▁گنوار": 10604, "▁ہونگی": 10605, "Laughter": 10606, "ri": 10607, "vi": 10608, "صورت": 10609, "لوط": 10610, "مقصد": 10611, "نشانیوں": 10612, "وکرم": 10613, "یعقوب": 10614, "▁Potent": 10615, "▁alternate": 10616, "▁contrived": 10617, "▁fortified": 10618, "▁heareth": 10619, "▁inviting": 10620, "▁lots": 10621, "▁owned": 10622, "▁pornography": 10623, "▁آدمؑ": 10624, "▁تماشہ": 10625, "▁حیوان": 10626, "▁خواہی": 10627, "▁دھر": 10628, "▁سایوں": 10629, "▁شق": 10630, "▁طاعت": 10631, "▁فریسی": 10632, "▁قدردان": 10633, "▁لگادی": 10634, "▁مانع": 10635, "▁مرا": 10636, "▁مظلوم": 10637, "▁کوتک": 10638, "بتاؤ": 10639, "سوا": 10640, "عراف": 10641, "▁Assembly": 10642, "▁Okay": 10643, "▁cleansed": 10644, "▁comrade": 10645, "▁inevitably": 10646, "▁maintenance": 10647, "▁rehearse": 10648, "▁sole": 10649, "▁toil": 10650, "▁اڑ": 10651, "▁ثقافت": 10652, "▁جبرا": 10653, "▁حت": 10654, "▁ریاکار": 10655, "▁سنوار": 10656, "▁صدق": 10657, "▁کوڑا": 10658, "▁کھیتوں": 10659, "ts": 10660, "افسوس": 10661, "جالے": 10662, "▁End": 10663, "▁England": 10664, "▁FOR": 10665, "▁Next": 10666, "▁US": 10667, "▁alert": 10668, "▁chests": 10669, "▁horizon": 10670, "▁humankind": 10671, "▁hungry": 10672, "▁lump": 10673, "▁occupied": 10674, "▁precedent": 10675, "▁riding": 10676, "▁rushing": 10677, "▁sustain": 10678, "▁watering": 10679, "▁اٹھو": 10680, "▁بنتی": 10681, "▁جوئے": 10682, "▁سبت": 10683, "▁صنعت": 10684, "▁فرار": 10685, "▁لیٹے": 10686, "▁پرانے": 10687, "▁پینا": 10688, "▁کوچ": 10689, "Adam": 10690, "رہ": 10691, "▁Draw": 10692, "▁Students": 10693, "▁asylum": 10694, "▁extends": 10695, "▁fables": 10696, "▁regions": 10697, "▁sacrificing": 10698, "▁significant": 10699, "▁skills": 10700, "▁trusting": 10701, "▁آٹھو": 10702, "▁اشارے": 10703, "▁سفری": 10704, "▁پاکستان": 10705, "▁پھندے": 10706, "▁کمرے": 10707, "Fire": 10708, "ha": 10709, "over": 10710, "جتماع": 10711, "نتج": 10712, "نیاوی": 10713, "▁24,": 10714, "▁Divine": 10715, "▁Mecca": 10716, "▁Tux": 10717, "▁breath": 10718, "▁counsels": 10719, "▁demanded": 10720, "▁foul": 10721, "▁maintaining": 10722, "▁marvelous": 10723, "▁mustard": 10724, "▁principal": 10725, "▁scalding": 10726, "▁سائنسدان": 10727, "▁قدمی": 10728, "▁مانوس": 10729, "Ra": 10730, "hearted": 10731, "load": 10732, "تاب": 10733, "دوسروں": 10734, "کاف": 10735, "▁March": 10736, "▁beds": 10737, "▁compulsion": 10738, "▁converse": 10739, "▁countenance": 10740, "▁devote": 10741, "▁exemption": 10742, "▁hid": 10743, "▁indecent": 10744, "▁jihad": 10745, "▁lewdness": 10746, "▁monstrous": 10747, "▁physically": 10748, "▁questioning": 10749, "▁readily": 10750, "▁solicit": 10751, "▁weaning": 10752, "▁جنم": 10753, "▁خامی": 10754, "▁خان": 10755, "▁خوفناک": 10756, "▁محتا": 10757, "▁پکڑتے": 10758, "▁ڈ": 10759, "Or": 10760, "reward": 10761, "داروں": 10762, "▁28:": 10763, "▁Tower": 10764, "▁Wali": 10765, "▁apparently": 10766, "▁biggest": 10767, "▁developing": 10768, "▁fifty": 10769, "▁intendeth": 10770, "▁retaliate": 10771, "▁shew": 10772, "▁suckle": 10773, "▁thoroughly": 10774, "▁ء": 10775, "▁ابھار": 10776, "▁صدر": 10777, "▁لاوی": 10778, "▁مکاری": 10779, "▁میخ": 10780, "▁چالوں": 10781, "▁گرتے": 10782, "ty": 10783, "▁26]": 10784, "▁48": 10785, "▁attainment": 10786, "▁companies": 10787, "▁cups": 10788, "▁cure": 10789, "▁dispose": 10790, "▁fleeing": 10791, "▁persecute": 10792, "▁proceed": 10793, "▁prodigal": 10794, "▁retaliation": 10795, "▁stake": 10796, "▁style": 10797, "▁torture": 10798, "▁آسودہ": 10799, "▁دسمبر": 10800, "▁عامو": 10801, "▁پھینکا": 10802, "have": 10803, "j": 10804, "برآں": 10805, "درپے": 10806, "نحوس": 10807, "▁apprehend": 10808, "▁arose": 10809, "▁beggar": 10810, "▁connected": 10811, "▁contained": 10812, "▁debts": 10813, "▁everywhere": 10814, "▁permits": 10815, "▁tread": 10816, "▁بھیڑیں": 10817, "▁لنگر": 10818, "▁چرا": 10819, "▁یکسو": 10820, "Z": 10821, "de": 10822, "جیسا": 10823, "من": 10824, "منہ": 10825, "گو": 10826, "▁90": 10827, "▁Excellen": 10828, "▁Stop": 10829, "▁Warn": 10830, "▁afar": 10831, "▁ascribing": 10832, "▁assumed": 10833, "▁fulfilling": 10834, "▁illustrious": 10835, "▁losing": 10836, "▁marrying": 10837, "▁pictures": 10838, "▁reaction": 10839, "▁surrounding": 10840, "▁توڑتے": 10841, "▁جولائی": 10842, "▁خریدا": 10843, "▁سبزہ": 10844, "▁سوفٹ": 10845, "▁لنگڑ": 10846, "▁لڑنا": 10847, "▁مریضوں": 10848, "▁چکیں": 10849, "Such": 10850, "lay": 10851, "sent": 10852, "▁German": 10853, "▁ban": 10854, "▁cries": 10855, "▁defied": 10856, "▁enlightening": 10857, "▁officials": 10858, "▁sunset": 10859, "▁vineyards": 10860, "▁ازسر": 10861, "▁بوٹی": 10862, "▁خلوصدل": 10863, "▁سالانہ": 10864, "▁مارنا": 10865, "▁وارد": 10866, "▁پت": 10867, "▁کروٹ": 10868, "▁ہا": 10869, "Whatever": 10870, "تکلیف": 10871, "عیل": 10872, "وث": 10873, "▁'--": 10874, "▁abasement": 10875, "▁challenging": 10876, "▁fewer": 10877, "▁hence": 10878, "▁laughing": 10879, "▁murdered": 10880, "▁pervert": 10881, "▁relent": 10882, "▁reverence": 10883, "▁slowly": 10884, "▁technology": 10885, "▁trading": 10886, "▁treachery": 10887, "▁اٹھت": 10888, "▁بابا": 10889, "▁بورڈ": 10890, "▁بچی": 10891, "▁حریص": 10892, "▁دلو": 10893, "▁سہن": 10894, "▁عقد": 10895, "▁پائیدار": 10896, "▁پیاد": 10897, "▁کوڑے": 10898, "here": 10899, "إ": 10900, "بھلا": 10901, "جملہ": 10902, "حالت": 10903, "معمولی": 10904, "نکاح": 10905, "▁Badr": 10906, "▁Michael": 10907, "▁attached": 10908, "▁baked": 10909, "▁courageous": 10910, "▁faithfulness": 10911, "▁opposes": 10912, "▁scoffed": 10913, "▁sorts": 10914, "▁spirituality": 10915, "▁آچکے": 10916, "▁اکتوبر": 10917, "▁بنوں": 10918, "▁حجاب": 10919, "▁حنوک": 10920, "▁سونپی": 10921, "▁نشاندہی": 10922, "▁پل": 10923, "▁پوچھتا": 10924, "▁گھٹا": 10925, "ye": 10926, "μ": 10927, "ئي": 10928, "رز": 10929, "مسلمان": 10930, "▁News": 10931, "▁Surah": 10932, "▁Tak": 10933, "▁adoration": 10934, "▁carpets": 10935, "▁character": 10936, "▁claims": 10937, "▁comforting": 10938, "▁confound": 10939, "▁declaring": 10940, "▁doctors": 10941, "▁enjoying": 10942, "▁fro": 10943, "▁glitter": 10944, "▁pardons": 10945, "▁remembers": 10946, "▁shackles": 10947, "▁swiftly": 10948, "▁tablets": 10949, "▁لہو": 10950, "▁گھٹات": 10951, ">": 10952, "AL": 10953, "خوش": 10954, "ذن": 10955, "سائٹ": 10956, "عیسی": 10957, "وه": 10958, "پس": 10959, "▁Contents": 10960, "▁Dawud": 10961, "▁General": 10962, "▁applies": 10963, "▁definitely": 10964, "▁governments": 10965, "▁idolatry": 10966, "▁ilah": 10967, "▁ink": 10968, "▁meed": 10969, "▁privileges": 10970, "▁range": 10971, "▁strangers": 10972, "▁swerve": 10973, "▁unawares": 10974, "▁wars": 10975, "▁اٹھاتا": 10976, "▁برف": 10977, "▁بپا": 10978, "▁بہرا": 10979, "▁تعدی": 10980, "▁خصوصی": 10981, "▁زوجی": 10982, "▁سوجھتا": 10983, "▁لقم": 10984, "▁يا": 10985, "▁پلٹے": 10986, "na": 10987, "انکار": 10988, "ساتھی": 10989, "مشرک": 10990, "▁Account": 10991, "▁Global": 10992, "▁altar": 10993, "▁capture": 10994, "▁career": 10995, "▁eastern": 10996, "▁faction": 10997, "▁fancy": 10998, "▁likened": 10999, "▁o": 11000, "▁okay": 11001, "▁quiet": 11002, "▁reasoning": 11003, "▁اعداد": 11004, "▁انصار": 11005, "▁باتو": 11006, "▁باحکمت": 11007, "▁بانٹ": 11008, "▁بتلاؤ": 11009, "▁رہم": 11010, "▁سبیل": 11011, "▁سنجیدہ": 11012, "▁عناد": 11013, "▁مجنون": 11014, "▁مرجائیں": 11015, "▁ناپاکی": 11016, "▁هعز": 11017, "▁ٓ": 11018, "▁پرند": 11019, "▁پھیلاؤ": 11020, "▁◆": 11021, "مک": 11022, "ٹھائیں": 11023, "▁2001": 11024, "▁39": 11025, "▁African": 11026, "▁campaign": 11027, "▁eighth": 11028, "▁glances": 11029, "▁grip": 11030, "▁mobile": 11031, "▁residents": 11032, "▁ropes": 11033, "▁y": 11034, "▁آلیا": 11035, "▁انحصار": 11036, "▁ایم": 11037, "▁اینڈ": 11038, "▁برازیل": 11039, "▁بہتا": 11040, "▁را": 11041, "▁شعلے": 11042, "▁متن": 11043, "▁مشین": 11044, "▁نال": 11045, "▁پانا": 11046, "▁کانپ": 11047, "▁ہوؤں": 11048, "▁Hold": 11049, "▁Rom": 11050, "▁defy": 11051, "▁device": 11052, "▁disagree": 11053, "▁grass": 11054, "▁hues": 11055, "▁indefinite": 11056, "▁labour": 11057, "▁mixture": 11058, "▁motivated": 11059, "▁repeated": 11060, "▁staying": 11061, "▁بیس": 11062, "▁جنگی": 11063, "▁عادل": 11064, "▁مارچ": 11065, "cy": 11066, "▁Pentecost": 11067, "▁Tim": 11068, "▁brass": 11069, "▁code": 11070, "▁focused": 11071, "▁performing": 11072, "▁prominent": 11073, "▁superiority": 11074, "▁uncles": 11075, "▁union": 11076, "▁worker": 11077, "▁ايک": 11078, "▁خطر": 11079, "▁خیرخواہ": 11080, "▁قارئین": 11081, "▁ٹھہرائیں": 11082, "each": 11083, "first": 11084, "▁January": 11085, "▁Sustainer": 11086, "▁achieved": 11087, "▁carrion": 11088, "▁directions": 11089, "▁doer": 11090, "▁flying": 11091, "▁horse": 11092, "▁literally": 11093, "▁ministers": 11094, "▁perfectly": 11095, "▁roaring": 11096, "▁scum": 11097, "▁seeds": 11098, "▁yesterday": 11099, "▁ادنی": 11100, "▁اگا": 11101, "▁بچھایا": 11102, "▁توازن": 11103, "▁راکھ": 11104, "▁مخصوصیت": 11105, "▁ویل": 11106, "▁چک": 11107, "▁چھتوں": 11108, "▁ہونٹ": 11109, "ٹھانا": 11110, "▁Canada": 11111, "▁October": 11112, "▁crossed": 11113, "▁declaration": 11114, "▁earnings": 11115, "▁equitably": 11116, "▁exhorted": 11117, "▁hoard": 11118, "▁locusts": 11119, "▁permanent": 11120, "▁symbols": 11121, "▁violently": 11122, "▁اضافی": 11123, "▁اپ": 11124, "▁سوچو": 11125, "▁عقیدہ": 11126, "▁قومی": 11127, "▁مخلصی": 11128, "Messianic": 11129, "bar": 11130, "تشدد": 11131, "رانی": 11132, "وک": 11133, "کم": 11134, "▁BIBLE": 11135, "▁Giver": 11136, "▁July": 11137, "▁arrows": 11138, "▁banished": 11139, "▁constructed": 11140, "▁covenanted": 11141, "▁divorces": 11142, "▁drug": 11143, "▁incur": 11144, "▁indecencies": 11145, "▁intent": 11146, "▁lifetime": 11147, "▁penetrate": 11148, "▁semen": 11149, "▁supporting": 11150, "▁trustee": 11151, "▁سپین": 11152, "▁عطیہ": 11153, "▁پکارنا": 11154, "▁پیالہ": 11155, "▁چا": 11156, "terrible": 11157, "زد": 11158, "ناسب": 11159, "▁2:2)": 11160, "▁Informed": 11161, "▁June": 11162, "▁Location": 11163, "▁Pardoning": 11164, "▁application": 11165, "▁ashamed": 11166, "▁brotherhood": 11167, "▁consist": 11168, "▁consumed": 11169, "▁embark": 11170, "▁en": 11171, "▁enables": 11172, "▁forges": 11173, "▁handed": 11174, "▁hurl": 11175, "▁meek": 11176, "▁precautions": 11177, "▁qiblah": 11178, "▁somewhat": 11179, "▁wronging": 11180, "▁روکو": 11181, "▁ملاپ": 11182, "▁وقوف": 11183, "▁کھالوں": 11184, "Haram": 11185, "▁Beware": 11186, "▁De": 11187, "▁Far": 11188, "▁Select": 11189, "▁Undoubtedly": 11190, "▁demonstrated": 11191, "▁evenings": 11192, "▁founded": 11193, "▁insane": 11194, "▁meaningful": 11195, "▁played": 11196, "▁rejecters": 11197, "▁sedition": 11198, "▁watched": 11199, "▁افضل": 11200, "▁بےحوصلہ": 11201, "▁دھرا": 11202, "▁سکتیں": 11203, "▁شو": 11204, "▁عناصر": 11205, "▁مچاتے": 11206, "خیز": 11207, "نکالیں": 11208, "کاروں": 11209, "▁Biblical": 11210, "▁Pakistan": 11211, "▁ally": 11212, "▁exceeding": 11213, "▁herbs": 11214, "▁lovers": 11215, "▁paragraph": 11216, "▁permit": 11217, "▁select": 11218, "▁strict": 11219, "▁symbolic": 11220, "▁tribute": 11221, "▁جنوری": 11222, "▁دھاگ": 11223, "▁رشوت": 11224, "▁زوال": 11225, "▁عمرہ": 11226, "▁عکاسی": 11227, "▁فسادی": 11228, "▁مین": 11229, "؂": 11230, "انا": 11231, "جتنا": 11232, "نیاہ": 11233, "وشبہ": 11234, "کامل": 11235, "▁French": 11236, "▁Heaven": 11237, "▁adjust": 11238, "▁betrayed": 11239, "▁continuous": 11240, "▁items": 11241, "▁resulted": 11242, "▁user": 11243, "▁ترکے": 11244, "▁دھوئیں": 11245, "▁دیئے۔": 11246, "▁دیوانے": 11247, "▁رہا۔": 11248, "▁ماتحت": 11249, "▁منافع": 11250, "▁می": 11251, "▁چھوئے": 11252, "▁کردیا۔": 11253, "▁گزرتی": 11254, "▁ہاتھی": 11255, "پیالے": 11256, "ھلی": 11257, "▁AND": 11258, "▁Further": 11259, "▁Meem": 11260, "▁Thessalonians": 11261, "▁absolutely": 11262, "▁assemblies": 11263, "▁embrace": 11264, "▁expanse": 11265, "▁gushing": 11266, "▁handful": 11267, "▁loins": 11268, "▁relation": 11269, "▁seeming": 11270, "▁testified": 11271, "▁tied": 11272, "▁trip": 11273, "▁جتھا": 11274, "▁جمائے": 11275, "▁خوبصورتی": 11276, "▁دہرا": 11277, "▁زنجیریں": 11278, "▁مخالفین": 11279, "▁مقدم": 11280, "▁ٹھہرو": 11281, "▁پھیلی": 11282, "▁کمیٹی": 11283, "▁گھڑا": 11284, "according": 11285, "called": 11286, "palm": 11287, "سبب": 11288, "پورا": 11289, "▁Armageddon": 11290, "▁Three": 11291, "▁Version": 11292, "▁abounding": 11293, "▁ascertain": 11294, "▁expand": 11295, "▁interesting": 11296, "▁outer": 11297, "▁qualified": 11298, "▁reign": 11299, "▁shut": 11300, "▁stratagem": 11301, "▁throats": 11302, "▁wounds": 11303, "▁بکواس": 11304, "▁تولو": 11305, "▁خرچی": 11306, "▁خریدنے": 11307, "▁خطاب": 11308, "▁سمو": 11309, "▁سینا": 11310, "▁طاق": 11311, "▁نزول": 11312, "▁نچوڑ": 11313, "▁۲۰۰۰": 11314, "red": 11315, "دراصل": 11316, "نت": 11317, "نعمت": 11318, "کوہ": 11319, "کہتے": 11320, "▁10]": 11321, "▁55": 11322, "▁Ancient": 11323, "▁Balance": 11324, "▁Blast": 11325, "▁excellence": 11326, "▁exercising": 11327, "▁joyfully": 11328, "▁measures": 11329, "▁ordain": 11330, "▁roofs": 11331, "▁song": 11332, "▁spot": 11333, "▁بہیں": 11334, "▁سروس": 11335, "▁قو": 11336, "▁نفو": 11337, "▁پاکدامن": 11338, "▁پروفیسر": 11339, "▁کینیڈا": 11340, "▁۱۰۰": 11341, "Obey": 11342, "drop": 11343, "revealed": 11344, "آگ": 11345, "حوروں": 11346, "خبردار": 11347, "عہد": 11348, "پیچھے": 11349, "▁Listen": 11350, "▁Pet": 11351, "▁announcement": 11352, "▁creator": 11353, "▁enlightenment": 11354, "▁homage": 11355, "▁kindled": 11356, "▁magazines": 11357, "▁speed": 11358, "▁vowed": 11359, "▁ابل": 11360, "▁اسمبلی": 11361, "▁تدبیروں": 11362, "▁جوابی": 11363, "▁مدار": 11364, "▁مرجاؤ": 11365, "▁منیجر": 11366, "▁پلک": 11367, "Powerful": 11368, "write": 11369, "اخذ": 11370, "بازپرس": 11371, "بھیجا": 11372, "غلام": 11373, "مسلمانو": 11374, "ہلاک": 11375, "یئے": 11376, "’”": 11377, "▁9]": 11378, "▁Covenant": 11379, "▁Fasiq": 11380, "▁Isra": 11381, "▁Shuaib": 11382, "▁^": 11383, "▁crush": 11384, "▁depressed": 11385, "▁desireth": 11386, "▁disbelieveth": 11387, "▁distributed": 11388, "▁figurative": 11389, "▁identity": 11390, "▁lift": 11391, "▁mid": 11392, "▁pitch": 11393, "▁propound": 11394, "▁publish": 11395, "▁viewpoint": 11396, "▁آپکڑے": 11397, "▁آپہنچی": 11398, "▁ادریس": 11399, "▁اوندھا": 11400, "▁اگائیں": 11401, "▁بدلنا": 11402, "▁تہی": 11403, "▁غسل": 11404, "▁فکرمند": 11405, "▁قاصد": 11406, "▁لاتے۔": 11407, "▁ٹیم": 11408, "▁پلٹتے": 11409, "▁چلایا": 11410, "▁چنے": 11411, "▁چوک": 11412, "▁کھلاؤ": 11413, "▁ہوسیع": 11414, "through": 11415, "بغیر": 11416, "شرک": 11417, "مالک": 11418, "▁2000": 11419, "▁Pay": 11420, "▁Times": 11421, "▁abilities": 11422, "▁apprehensive": 11423, "▁choices": 11424, "▁constrained": 11425, "▁passes": 11426, "▁remarkable": 11427, "▁salutation": 11428, "▁sooth": 11429, "▁strengthens": 11430, "▁twinkl": 11431, "▁مردار": 11432, "both": 11433, "ue": 11434, "فس": 11435, "▁33.": 11436, "▁Dispose": 11437, "▁Huwa": 11438, "▁Judges": 11439, "▁blue": 11440, "▁broadband": 11441, "▁condemn": 11442, "▁eliminate": 11443, "▁envoys": 11444, "▁tear": 11445, "▁vessels": 11446, "▁zakah": 11447, "▁القا": 11448, "▁بغل": 11449, "▁لپک": 11450, "▁پیدل": 11451, "▁چادر": 11452, "Today": 11453, "قرار": 11454, "مہ": 11455, "ڑاتے": 11456, "▁35.": 11457, "▁Appreciative": 11458, "▁Heb": 11459, "▁Invisible": 11460, "▁X": 11461, "▁clan": 11462, "▁crowds": 11463, "▁discernment": 11464, "▁jealous": 11465, "▁negligent": 11466, "▁performs": 11467, "▁sang": 11468, "▁science": 11469, "▁throat": 11470, "▁vanished": 11471, "▁ادویات": 11472, "▁بذریعہ": 11473, "▁دیکھوں": 11474, "▁عقید": 11475, "▁گندی": 11476, "worship": 11477, "وط": 11478, "▁Severe": 11479, "▁demanding": 11480, "▁imperfection": 11481, "▁market": 11482, "▁outstretched": 11483, "▁perfection": 11484, "▁recalls": 11485, "▁rid": 11486, "▁sacrificed": 11487, "▁ابد": 11488, "▁ایل": 11489, "▁تفصیلات": 11490, "▁دلکش": 11491, "▁رگ": 11492, "▁فیض": 11493, "▁محمود": 11494, "▁چر": 11495, "▁چڑھایا": 11496, "▁گہرائی": 11497, "جہاں": 11498, "لایا": 11499, "کلام": 11500, "▁December": 11501, "▁Human": 11502, "▁Malachi": 11503, "▁awesome": 11504, "▁encourages": 11505, "▁frowned": 11506, "▁merge": 11507, "▁onto": 11508, "▁pity": 11509, "▁understands": 11510, "▁worshiper": 11511, "▁بیابان": 11512, "▁سرفراز": 11513, "hypocrites": 11514, "▁Cain": 11515, "▁Falsehood": 11516, "▁Isma": 11517, "▁Reading": 11518, "▁[(": 11519, "▁approve": 11520, "▁attributes": 11521, "▁billion": 11522, "▁cherish": 11523, "▁dedicate": 11524, "▁destiny": 11525, "▁hospital": 11526, "▁hunt": 11527, "▁persisted": 11528, "▁بٹا": 11529, "▁بچھ": 11530, "▁زیبا": 11531, "▁عصمت": 11532, "▁عقائد": 11533, "▁قاتل": 11534, "▁لکھنا": 11535, "▁مصری": 11536, "▁وا": 11537, "▁ہوتے۔": 11538, "بع": 11539, "فید": 11540, "ونگا": 11541, "▁Bedouins": 11542, "▁Build": 11543, "▁Error": 11544, "▁Move": 11545, "▁Pleasure": 11546, "▁Source": 11547, "▁arraigned": 11548, "▁brochure": 11549, "▁delicious": 11550, "▁devouring": 11551, "▁extinguish": 11552, "▁feast": 11553, "▁fee": 11554, "▁giver": 11555, "▁manifested": 11556, "▁predecessors": 11557, "▁preparing": 11558, "▁regrets": 11559, "▁reside": 11560, "▁royal": 11561, "▁stature": 11562, "▁اشتہار": 11563, "▁بتائیے": 11564, "▁بھائیو": 11565, "▁مزاحمت": 11566, "▁نہيں": 11567, "made": 11568, "mmaculate": 11569, "▁15]": 11570, "▁Zaqqum": 11571, "▁audience": 11572, "▁bringest": 11573, "▁calleth": 11574, "▁contemplate": 11575, "▁floor": 11576, "▁hanging": 11577, "▁intelligent": 11578, "▁invokes": 11579, "▁leaf": 11580, "▁post": 11581, "▁swerved": 11582, "▁tiding": 11583, "▁uprooted": 11584, "▁کاٹنے": 11585, "▁کھلائیں": 11586, "Jibrael": 11587, "Masjid": 11588, "rink": 11589, "ازمسیح": 11590, "قتل": 11591, "کیمیائی": 11592, "▁Independent": 11593, "▁London": 11594, "▁Omnipotent": 11595, "▁Pharisees": 11596, "▁criminal": 11597, "▁dangers": 11598, "▁dowries": 11599, "▁knower": 11600, "▁obstruct": 11601, "▁penitently": 11602, "▁proceeded": 11603, "▁sown": 11604, "▁suggest": 11605, "▁انجیر": 11606, "▁حا": 11607, "▁دخل": 11608, "▁دہی": 11609, "▁دیانت": 11610, "▁ممانعت": 11611, "▁چلائی": 11612, "▁کٹائی": 11613, "ant": 11614, "بارش": 11615, "قسم": 11616, "لانے": 11617, "ماں": 11618, "نٹ": 11619, "▁Brazil": 11620, "▁Chronicles": 11621, "▁Test": 11622, "▁declares": 11623, "▁deeper": 11624, "▁delighted": 11625, "▁diminish": 11626, "▁famous": 11627, "▁influenced": 11628, "▁modesty": 11629, "▁sanctify": 11630, "▁steeped": 11631, "▁unite": 11632, "▁حسین": 11633, "▁دام": 11634, "▁رشتےدار": 11635, "▁فعال": 11636, "▁نادار": 11637, "▁نقص": 11638, "▁هو": 11639, "▁پالیں": 11640, "▁چڑھائے": 11641, "Hold": 11642, "Mention": 11643, "golden": 11644, "آنے": 11645, "تال": 11646, "▁\"[": 11647, "▁Abel": 11648, "▁Provider": 11649, "▁bury": 11650, "▁choosing": 11651, "▁illuminating": 11652, "▁imminent": 11653, "▁method": 11654, "▁mirage": 11655, "▁overthrown": 11656, "▁proudly": 11657, "▁restricted": 11658, "▁strongly": 11659, "▁انسانیت": 11660, "▁بوجھل": 11661, "▁ذیل": 11662, "▁مسخ": 11663, "Say": 11664, "Worthy": 11665, "em": 11666, "power": 11667, "سکتے": 11668, "▁Maintain": 11669, "▁Satans": 11670, "▁deliberately": 11671, "▁disobeying": 11672, "▁distribute": 11673, "▁famine": 11674, "▁fountain": 11675, "▁greedy": 11676, "▁majesty": 11677, "▁oceans": 11678, "▁offense": 11679, "▁pull": 11680, "▁refreshing": 11681, "▁rewarding": 11682, "▁sanction": 11683, "▁spell": 11684, "▁swearing": 11685, "▁الشان": 11686, "▁رسالہ": 11687, "▁سیاست": 11688, "▁مو": 11689, "Al": 11690, "volving": 11691, "تباہ": 11692, "وگے": 11693, "▁18]": 11694, "▁Happy": 11695, "▁Nations": 11696, "▁angelic": 11697, "▁chain": 11698, "▁conquest": 11699, "▁disagreed": 11700, "▁enhance": 11701, "▁illustrations": 11702, "▁lamps": 11703, "▁recognised": 11704, "▁skill": 11705, "▁suggested": 11706, "▁unfaithful": 11707, "▁بحر": 11708, "▁سابق": 11709, "▁طبقات": 11710, "▁نادم": 11711, "▁نمک": 11712, "▁پذیر": 11713, "▁گاڑ": 11714, "▁ہابل": 11715, "ccompanied": 11716, "بلا": 11717, "حالانکہ": 11718, "یاہ": 11719, "▁Avoid": 11720, "▁Dead": 11721, "▁Following": 11722, "▁Nazarenes": 11723, "▁Network": 11724, "▁Public": 11725, "▁fulfilment": 11726, "▁inwardly": 11727, "▁luminous": 11728, "▁watcher": 11729, "▁احمد": 11730, "▁اگست": 11731, "▁بنائے۔": 11732, "▁تراشتے": 11733, "▁خواستگار": 11734, "▁روس": 11735, "▁سلب": 11736, "▁مامو": 11737, "▁مرگئے": 11738, "▁ٹھیرایا": 11739, "▁پکے": 11740, "▁کھلاتا": 11741, "▁گاہیں": 11742, "Naught": 11743, "RE": 11744, "ious": 11745, "الاقوام": 11746, "بند": 11747, "جانور": 11748, "دادا": 11749, "در": 11750, "ذیل": 11751, "مزاجی": 11752, "▁26.": 11753, "▁Egyptian": 11754, "▁El": 11755, "▁Envoys": 11756, "▁Repel": 11757, "▁Walk": 11758, "▁deprive": 11759, "▁fundamental": 11760, "▁homecoming": 11761, "▁kinsfolk": 11762, "▁scarce": 11763, "▁traveller": 11764, "▁worshiping": 11765, "▁اسراف": 11766, "▁اوراگر": 11767, "▁بنالی": 11768, "▁بچالیں": 11769, "▁تنبیہات": 11770, "▁حنی": 11771, "▁دنبی": 11772, "▁ذوالکفل": 11773, "▁ستمگار": 11774, "▁سربراہ": 11775, "▁شعیبؑ": 11776, "▁صالحؑ": 11777, "▁لاگو": 11778, "▁مشیت": 11779, "▁وعد": 11780, "▁ٹوک": 11781, "▁پایا۔": 11782, "▁پیغمبرؐ": 11783, "▁چوٹی": 11784, "▁گزارے": 11785, "**": 11786, "god": 11787, "nvoke": 11788, "وقا": 11789, "چیز": 11790, "”?": 11791, "▁**": 11792, "▁30.": 11793, "▁Cities": 11794, "▁Dhu": 11795, "▁Luqman": 11796, "▁Welcome": 11797, "▁Yahya": 11798, "▁abase": 11799, "▁constancy": 11800, "▁contentious": 11801, "▁corpse": 11802, "▁covet": 11803, "▁dispensation": 11804, "▁district": 11805, "▁driver": 11806, "▁expiate": 11807, "▁folly": 11808, "▁hastily": 11809, "▁iniquitous": 11810, "▁purely": 11811, "▁schemes": 11812, "▁soothsayer": 11813, "▁subsistence": 11814, "▁suckling": 11815, "▁suspicion": 11816, "▁thence": 11817, "▁valleys": 11818, "▁volunteers": 11819, "▁winners": 11820, "▁yore": 11821, "▁اندازی": 11822, "▁تعی": 11823, "▁تنقید": 11824, "▁جیتا": 11825, "▁زر": 11826, "▁شایان": 11827, "▁فائلز": 11828, "▁مشروب": 11829, "▁میلان": 11830, "▁کردے۔": 11831, "Rather": 11832, "جماعت": 11833, "▁25]": 11834, "▁28,": 11835, "▁Habakkuk": 11836, "▁Ministry": 11837, "▁Spanish": 11838, "▁compromise": 11839, "▁destroying": 11840, "▁features": 11841, "▁healed": 11842, "▁morn": 11843, "▁thief": 11844, "▁traditions": 11845, "▁triumphant": 11846, "▁اگلا": 11847, "▁بھیدوں": 11848, "▁خونریزی": 11849, "▁مرو": 11850, "▁مہ": 11851, "coming": 11852, "ists": 11853, "▁17]": 11854, "▁Cognizant": 11855, "▁adults": 11856, "▁amend": 11857, "▁conform": 11858, "▁depends": 11859, "▁furnish": 11860, "▁inquire": 11861, "▁lure": 11862, "▁opens": 11863, "▁portions": 11864, "▁sheltered": 11865, "▁types": 11866, "▁utterance": 11867, "▁استفادہ": 11868, "▁تصویروں": 11869, "▁حیلہ": 11870, "▁خلاص": 11871, "▁شکستہ": 11872, "▁عادات": 11873, "▁قد": 11874, "▁قلیل": 11875, "▁ٹھو": 11876, "▁ٹیکس": 11877, "▁پہنا": 11878, "▁۵۱": 11879, "life": 11880, "ut": 11881, "بی": 11882, "مومنوں": 11883, "▁TV": 11884, "▁WHEN": 11885, "▁advantages": 11886, "▁contract": 11887, "▁feeble": 11888, "▁impress": 11889, "▁lag": 11890, "▁planet": 11891, "▁raises": 11892, "▁represented": 11893, "▁squander": 11894, "▁woeful": 11895, "▁بھڑ": 11896, "▁رعایت": 11897, "▁پردیسی": 11898, "▁پھ": 11899, "▁کپڑا": 11900, "Kill": 11901, "▁Choose": 11902, "▁Doing": 11903, "▁Stand": 11904, "▁compare": 11905, "▁crystal": 11906, "▁fairness": 11907, "▁homeland": 11908, "▁online": 11909, "▁overcame": 11910, "▁reminding": 11911, "▁sights": 11912, "▁stingy": 11913, "▁usage": 11914, "▁useless": 11915, "▁valid": 11916, "▁wrapped": 11917, "▁اشاعت": 11918, "▁بالاتر": 11919, "▁تاریخی": 11920, "▁خلل": 11921, "▁مزی": 11922, "▁ننھے": 11923, "▁ٹیڑھے": 11924, "▁پہننے": 11925, "▁چھپانے": 11926, "▁کاشت": 11927, "during": 11928, "prayer": 11929, "▁Reward": 11930, "▁Stay": 11931, "▁assignments": 11932, "▁copies": 11933, "▁cushions": 11934, "▁ewe": 11935, "▁forbidding": 11936, "▁immortality": 11937, "▁lovely": 11938, "▁reckoned": 11939, "▁stead": 11940, "▁stored": 11941, "▁widely": 11942, "▁yields": 11943, "▁انڈیل": 11944, "▁اکھٹا": 11945, "▁تماش": 11946, "▁دیدہ": 11947, "▁فا": 11948, "▁نکلوا": 11949, "▁وبا": 11950, "▁چھٹی": 11951, "▁گھٹ": 11952, "Jinn": 11953, "rebellious": 11954, "برابر": 11955, "دلی": 11956, "وجان": 11957, "کیوں": 11958, "▁November": 11959, "▁Unknown": 11960, "▁entertain": 11961, "▁interpret": 11962, "▁mend": 11963, "▁naked": 11964, "▁opinions": 11965, "▁parted": 11966, "▁rate": 11967, "▁referring": 11968, "▁roll": 11969, "▁scientists": 11970, "▁suit": 11971, "▁supports": 11972, "▁vanish": 11973, "▁جستجو": 11974, "▁دوڑو": 11975, "▁عدد": 11976, "▁میٹر": 11977, "▁کارڈ": 11978, "▁کترا": 11979, "▁ہفت": 11980, "Bow": 11981, "Except": 11982, "ga": 11983, "جرت": 11984, "ڑتے": 11985, "▁27.": 11986, "▁51": 11987, "▁Halls": 11988, "▁Y": 11989, "▁distracted": 11990, "▁ewes": 11991, "▁hallowed": 11992, "▁migrate": 11993, "▁mornings": 11994, "▁profound": 11995, "▁significance": 11996, "▁smote": 11997, "▁sum": 11998, "▁talked": 11999, "▁temptations": 12000, "▁اترو": 12001, "▁بروشر": 12002, "▁جھنڈ": 12003, "▁حادث": 12004, "▁دیدار": 12005, "▁طومار": 12006, "▁علمی": 12007, "▁لوٹیں": 12008, "▁مچھلیاں": 12009, "▁چڑھتے": 12010, "▁ڈپریشن": 12011, "criminals": 12012, "مقام": 12013, "▁Admonition": 12014, "▁Britain": 12015, "▁Ex": 12016, "▁Guard": 12017, "▁Heights": 12018, "▁Wrong": 12019, "▁aye": 12020, "▁beguiled": 12021, "▁citizens": 12022, "▁columns": 12023, "▁discover": 12024, "▁endu": 12025, "▁exempt": 12026, "▁existing": 12027, "▁firmness": 12028, "▁north": 12029, "▁pledged": 12030, "▁stability": 12031, "▁street": 12032, "▁wondered": 12033, "▁آیا۔": 12034, "▁تھس": 12035, "▁سرو": 12036, "▁سینکڑوں": 12037, "▁واسطہ": 12038, "▁کالے": 12039, "▁کرائے": 12040, "▁کمپنی": 12041, "8": 12042, "Whoever": 12043, "minded": 12044, "new": 12045, "تارنا": 12046, "ردار": 12047, "لکھی": 12048, "ونچی": 12049, "ہوگا": 12050, "▁European": 12051, "▁Praises": 12052, "▁State": 12053, "▁employment": 12054, "▁establishment": 12055, "▁illustrated": 12056, "▁indulged": 12057, "▁reliable": 12058, "▁reserved": 12059, "▁saves": 12060, "▁tasks": 12061, "▁traits": 12062, "▁uncleanness": 12063, "▁vicious": 12064, "▁wake": 12065, "▁دیوانگی": 12066, "▁رہوگے": 12067, "▁سوجھ": 12068, "▁سوچتا": 12069, "▁سڑ": 12070, "▁ططس": 12071, "▁لندن": 12072, "▁مسیحیت": 12073, "▁ناکامل": 12074, "▁کررہی": 12075, "ized": 12076, "با": 12077, "فتح": 12078, "▁Abu": 12079, "▁affirm": 12080, "▁buildings": 12081, "▁dense": 12082, "▁disposition": 12083, "▁fashion": 12084, "▁hates": 12085, "▁pioneering": 12086, "▁rises": 12087, "▁row": 12088, "▁scrolls": 12089, "▁software": 12090, "▁tarry": 12091, "▁جسموں": 12092, "▁جہازوں": 12093, "▁خال": 12094, "▁زمانۂ": 12095, "▁سنت": 12096, "▁سنور": 12097, "▁قرعہ": 12098, "▁چکھتے": 12099, "▁ہٹنے": 12100, "Not": 12101, "PPP": 12102, "ex": 12103, "human": 12104, "strong": 12105, "بئ": 12106, "ذبیحہ": 12107, "صالح": 12108, "نیوں": 12109, "▁Horn": 12110, "▁Spain": 12111, "▁Table": 12112, "▁Things": 12113, "▁University": 12114, "▁advocate": 12115, "▁distribution": 12116, "▁doctrine": 12117, "▁estimated": 12118, "▁fleshly": 12119, "▁indulge": 12120, "▁lesser": 12121, "▁ministeri": 12122, "▁routed": 12123, "▁scroll": 12124, "▁seals": 12125, "▁unfair": 12126, "▁w": 12127, "▁آتیں": 12128, "▁آجاتی": 12129, "▁اخراجات": 12130, "▁بیدار": 12131, "▁ترکیب": 12132, "▁دھکے": 12133, "▁سامعین": 12134, "▁سنگ": 12135, "▁سوئی": 12136, "▁عمارتیں": 12137, "▁غ": 12138, "▁متوازن": 12139, "▁مچھر": 12140, "▁نظریں": 12141, "▁نیگ": 12142, "▁وفا": 12143, "▁پراگند": 12144, "▁پودے": 12145, "▁پہنچاؤ": 12146, "▁ڈھا": 12147, "▁ڈھونڈت": 12148, "▁کاریگری": 12149, "▁کرائیں": 12150, "\\": 12151, "dead": 12152, "lying": 12153, "lzo": 12154, "set": 12155, "were": 12156, "اغب": 12157, "سا": 12158, "مل": 12159, "نصیحت": 12160, "▁Hypocrites": 12161, "▁Ismail": 12162, "▁Myself": 12163, "▁Notice": 12164, "▁annihilated": 12165, "▁ants": 12166, "▁beget": 12167, "▁compass": 12168, "▁discharge": 12169, "▁dowry": 12170, "▁drunk": 12171, "▁emigrants": 12172, "▁formerly": 12173, "▁gathers": 12174, "▁marital": 12175, "▁television": 12176, "▁widespread": 12177, "▁آئیگا": 12178, "▁اٹھاؤ": 12179, "▁جمعیت": 12180, "▁جھاڑ": 12181, "▁روا": 12182, "▁زياد": 12183, "▁سراہا": 12184, "▁شہرت": 12185, "▁غص": 12186, "▁مذم": 12187, "▁معامل": 12188, "▁موجوں": 12189, "▁ٹپکا": 12190, "▁پاکر": 12191, "▁چھاؤں": 12192, "▁کھڑکھڑا": 12193, "▁ہونا۔": 12194, "ca": 12195, "ir": 12196, "po": 12197, "احسان": 12198, "برائی": 12199, "تختیوں": 12200, "جا": 12201, "دوسرا": 12202, "نندہ": 12203, "▁21,": 12204, "▁accompany": 12205, "▁comfortable": 12206, "▁honey": 12207, "▁martyrs": 12208, "▁streets": 12209, "▁weariness": 12210, "▁اوصاف": 12211, "▁بوجھے": 12212, "▁ساکن": 12213, "▁سرور": 12214, "▁سنگھار": 12215, "▁طوی": 12216, "▁قلعہ": 12217, "▁لئے۔": 12218, "▁مجید": 12219, "▁میانہ": 12220, "▁میوہ": 12221, "▁نکات": 12222, "▁گٹھلی": 12223, "▁گیہوں": 12224, "5": 12225, "Am": 12226, "aliha": 12227, "os": 12228, "انبیاء": 12229, "جنہوں": 12230, "خروی": 12231, "دئیے": 12232, "داخل": 12233, "دعوت": 12234, "دیئے": 12235, "رپیش": 12236, "عمده": 12237, "فالت": 12238, "معجزہ": 12239, "مغرب": 12240, "ملکہ": 12241, "وعدہ": 12242, "یقینا": 12243, "▁Automatic": 12244, "▁Hallow": 12245, "▁classes": 12246, "▁conversations": 12247, "▁diseases": 12248, "▁exit": 12249, "▁fortresses": 12250, "▁miraculous": 12251, "▁scholar": 12252, "▁باعز": 12253, "▁بولنا": 12254, "▁جدوجہد": 12255, "▁دبل": 12256, "▁درود": 12257, "▁شده": 12258, "▁فراخی": 12259, "▁قرابتداروں": 12260, "▁لگن": 12261, "▁متشابہ": 12262, "▁نابینا": 12263, "▁نومبر": 12264, "▁ٹھہری": 12265, "▁ٹیلی": 12266, "▁پلہ": 12267, "▁کنب": 12268, "▁ہارو": 12269, "W": 12270, "Whe": 12271, "Ye": 12272, "yourselves": 12273, "zip": 12274, "جادو": 12275, "سارے": 12276, "سمجھانے": 12277, "مرد": 12278, "معجزه": 12279, "نافرمانی": 12280, "گارہ": 12281, "▁Messages": 12282, "▁Throw": 12283, "▁angle": 12284, "▁attitudes": 12285, "▁blackened": 12286, "▁contributions": 12287, "▁overflowing": 12288, "▁parting": 12289, "▁rooted": 12290, "▁sect": 12291, "▁seeth": 12292, "▁services": 12293, "▁sinning": 12294, "▁stare": 12295, "▁tenderness": 12296, "▁travellers": 12297, "▁treasuries": 12298, "▁بڑھائیں": 12299, "▁تغیر": 12300, "▁جانداروں": 12301, "▁رہینگے": 12302, "▁سوراخ": 12303, "▁لیجا": 12304, "▁پارٹی": 12305, "▁کنواری": 12306, "▁کوڑھی": 12307, "Ask": 12308, "K": 12309, "Only": 12310, "sh": 12311, "ʹ": 12312, "جی": 12313, "شوع": 12314, "▁Brit": 12315, "▁Criterion": 12316, "▁GNU": 12317, "▁Jinns": 12318, "▁Mr": 12319, "▁Password": 12320, "▁Samiri": 12321, "▁Samood": 12322, "▁Tubba": 12323, "▁bidden": 12324, "▁covenants": 12325, "▁createth": 12326, "▁deviation": 12327, "▁differing": 12328, "▁drinkers": 12329, "▁edge": 12330, "▁errors": 12331, "▁exposition": 12332, "▁format": 12333, "▁horror": 12334, "▁idol": 12335, "▁initiative": 12336, "▁opposers": 12337, "▁plunged": 12338, "▁pulled": 12339, "▁solve": 12340, "▁spake": 12341, "▁suggests": 12342, "▁thereat": 12343, "▁warfare": 12344, "▁wisely": 12345, "▁ایچ": 12346, "▁برہم": 12347, "▁جلن": 12348, "▁ذخیرہ": 12349, "▁زراعت": 12350, "▁سرحد": 12351, "▁سماجی": 12352, "▁ناکامی": 12353, "▁پرنٹ": 12354, "▁پٹ": 12355, "fully": 12356,
[...]
